[PAD]
[CLS]
[MASK]
[UNK]
[SEP]
!
"
#
$
%
&
'
)
*
+
,
-
.
/
0
1
2
3
4
5
6
7
8
9
:
;
<
=
>
?
[
]
^
_
`
a
b
c
d
e
f
g
h
i
j
k
l
m
n
o
p
q
r
s
t
u
v
w
x
y
z
{
|
}
~
£
¥
«
·
¹
à
á
â
ä
ç
è
é
ê
í
ñ
ó
õ
ù
ú
û
ü
##r
##e
##n
##d
##a
##i
##f
##s
##o
##p
##l
##c
##t
##w
##k
##g
##u
##x
##h
##m
##b
##y
##z
##v
##6
##0
##2
##4
##5
##ù
##j
##9
##q
##3
##1
##8
##7
##â
##é
##ú
##í
##û
##ü
##ê
##ó
##ñ
##à
##ç
##è
##ä
##¹
##á
##õ
th
##ou
you
##er
##in
##at
the
##on
##an
to
##ing
##ll
wh
##or
##en
##es
an
##ed
it
##ow
##ar
##is
##et
##ot
##it
##om
##as
##re
in
that
##ve
##ut
##ay
he
of
and
##ere
re
what
be
we
me
ha
do
##le
##id
##st
##gh
on
##ld
is
go
##ck
sh
##ke
##se
##al
##ght
for
##im
don
kn
st
li
this
##ver
know
your
##ch
not
##ce
was
##ad
have
my
##ight
no
##ust
##ir
##ould
##ith
##ome
##am
##ant
##ent
##ee
can
with
##ill
##oo
are
##ur
##all
but
##out
##ly
ne
they
##ion
so
ab
get
##ct
did
all
just
like
##ter
##hing
about
##od
there
##ink
out
want
##ri
##her
as
##nd
got
##ea
ll
she
ch
how
here
if
su
pr
##op
think
up
at
him
##ry
##ake
##one
any
##ic
##ell
##and
##ie
##ess
ve
##pp
##ook
##ra
##est
who
wor
one
##un
de
fr
some
##ack
her
see
why
well
now
al
##ind
##ore
right
##il
going
say
ever
##us
look
##art
would
sa
##ive
##ally
man
or
tell
##ge
##ain
lo
##ard
us
pl
oh
##ig
##ist
where
yes
good
tim
##uck
##ul
##alk
se
could
##os
when
##if
gu
##ame
ex
##ol
his
##ong
ar
##ate
com
##ven
##ast
from
som
been
##end
were
thing
##ers
somet
##ab
yea
will
yeah
##ound
time
come
##au
##way
back
mean
##ob
##ak
##ear
didn
##na
let
##ine
sp
con
##our
them
##um
talk
br
##itt
had
every
tw
##ick
##ice
off
too
##ation
##thing
##own
than
then
may
##lf
something
car
am
##ous
tr
never
take
##ap
##other
ag
cl
##ose
call
le
way
mr
fuck
does
en
work
##ough
happ
##ty
need
ok
##ort
really
##ody
##ect
make
##be
over
down
pe
should
af
##ase
qu
##ittle
##ery
dr
little
more
##em
##oy
un
mo
##ought
gon
bet
by
bl
##ace
gonna
sure
our
okay
said
mu
guy
##ople
people
has
kill
##el
##ause
##ber
mar
int
bu
co
##ide
##body
##ag
two
won
sc
##iss
maybe
very
##th
only
happen
##ff
##self
hu
##reat
und
hell
bec
much
##oney
##eel
day
##fe
##ree
under
god
even
wr
##ew
anything
year
sor
doing
##lie
##ther
##ving
##ure
##ish
ask
thought
sorry
love
give
other
##ite
##ity
hel
##ies
feel
##ble
gr
##ting
fir
night
ro
##riend
new
wa
jo
##act
thank
because
try
help
nothing
##ning
##eep
again
long
##ip
##fore
into
im
##ment
find
sir
before
##wn
##ather
must
##ue
belie
after
##ach
ple
life
gir
still
put
##ich
told
rem
money
##pl
wait
##ang
##der
em
these
po
first
last
##ady
lea
##ade
around
hey
##ass
##ta
##ire
things
##ance
el
friend
kind
thr
old
kid
believe
##ud
##per
prob
cr
those
girl
##iz
better
cou
keep
##ves
##age
ad
sw
##ways
name
part
big
##ood
sm
list
##ool
##pt
isn
##day
ho
ma
always
years
boy
##get
##atch
min
##oss
##ence
shit
please
hi
real
great
home
away
uh
lot
place
per
underst
doesn
mon
##ved
##ile
ac
##urn
cour
##ft
miss
bad
stop
##ix
fl
their
ass
##ried
fa
act
##ise
##int
listen
everything
##ci
understand
supp
hand
##ouse
play
remem
care
##og
start
##ord
ph
remember
stay
##ild
three
##ath
run
##ory
sec
##ep
bus
##ank
hear
dis
happened
id
huh
##ond
wouldn
##ull
wrong
##qu
stu
##able
might
guess
dead
##iff
tra
##tain
cra
talking
minut
made
##een
mother
show
else
##atter
tom
##red
##man
wom
father
##ious
leave
house
##ia
##ny
##ful
mind
##ater
mor
ser
##ey
##amn
course
##aking
wanted
head
la
##oth
##sh
##pr
ain
own
dad
done
nice
str
someone
##ek
inter
##ans
getting
res
##ock
came
gotta
through
job
enough
yourself
sch
mom
par
wasn
five
another
##port
ins
pret
ton
pro
bo
fine
##pect
##ions
ya
world
##ict
being
saw
##lem
##ac
##orr
##are
left
sl
room
week
##akes
fucking
##itch
rec
char
hard
app
##ign
##erson
cont
##nt
knew
##dy
##ange
##iness
meet
went
di
heard
war
looking
matter
trying
##ary
##orm
comm
##hn
##ated
son
##ub
same
##ner
fun
which
che
##ple
haven
hur
tonight
diff
##ro
##ever
seen
##ife
##ctor
coming
four
##enty
##ph
guys
john
bre
turn
pretty
six
bab
whole
person
att
##osed
pol
gl
##pen
##mm
##ons
read
business
seem
plan
live
watch
quest
acc
fo
##ars
fin
walk
cle
te
##gg
fam
##ince
##orrow
##ope
used
word
many
##ian
har
called
thanks
best
##leep
ah
##ily
ter
found
pay
tri
hour
problem
deal
pre
##ible
##ndred
comp
morning
hundred
##ister
inv
##ave
hello
##ident
##my
couldn
killed
idea
most
des
chr
##xt
##av
says
men
wife
##wh
##ually
cap
ten
##ett
jack
use
woman
##zy
stuff
next
sit
##ream
far
##les
school
sur
##ents
tomorrow
myself
dri
pa
once
saying
differ
bar
without
##orn
##ash
bring
##ably
cut
sen
while
wonder
end
hold
##ors
##ical
##anc
sho
##ult
jes
gi
today
yet
few
sound
baby
pick
##gether
ed
met
ago
##aught
##ail
pres
brother
damn
together
drink
##ason
##uth
point
somebody
child
open
since
##aut
days
sleep
##anna
took
rest
##ready
fif
doctor
probably
thir
such
##ead
##ling
aren
gone
christ
eas
already
exc
doll
pri
count
crazy
ey
case
eat
alone
late
exact
stand
anyone
thous
jesus
##raid
dec
ap
hot
half
thousand
gun
nobody
##eak
book
wants
break
beaut
twenty
die
fig
check
##ouble
##sw
month
dar
friends
afraid
hurt
unt
##son
thinking
high
##eet
forget
##ng
##ize
minute
##ition
anyway
prom
mrs
law
##air
interest
##where
second
supposed
ev
hope
looks
cop
##ower
##ib
##pe
rel
bill
sk
##right
hit
exactly
##oke
mill
##ost
shot
young
wanna
soon
family
##ying
hon
until
face
lost
spe
knows
##unch
eight
makes
##amp
set
##ness
cause
story
##cept
compl
working
minutes
town
fight
bed
gen
num
##use
gra
ob
police
aw
poss
##less
##gin
##ger
question
move
inf
true
##by
##iful
##ings
##ott
married
answ
everybody
kids
##rew
##vel
##ump
worry
##ug
##ual
asked
##ating
frank
sim
bull
##ared
having
##ither
godd
gave
##az
je
pass
beautiful
ear
ready
different
##ork
sometim
##ations
actually
wish
happy
##ane
conf
##ah
bit
heart
shut
air
luck
##ert
alright
least
col
anybody
mur
##no
phone
sign
times
trouble
beh
door
trust
##ied
##ress
##iv
##llow
light
##ret
bra
expl
##enc
dream
ind
mil
sy
death
##ont
gets
##ier
##cial
hate
mad
hum
cons
quite
hun
##ial
##land
blood
both
shoot
easy
del
##uss
ge
ste
import
each
star
taking
reason
##ned
##ired
serious
pull
##ates
cor
##ely
##cc
chance
yours
##ames
##ins
inst
##unk
fact
send
##vie
close
##more
speak
perf
##ne
##ird
black
din
whatever
fuckin
honey
captain
det
expect
eng
making
##vor
inc
ben
change
answer
fire
##reet
##ention
dep
sort
##iver
goes
pict
disc
##outh
hours
side
##io
telling
##ens
news
couple
dollars
truth
important
##ren
water
##ouch
follow
mine
##ison
buy
lear
sometimes
lie
##ding
anymore
##app
##ertain
suppose
funny
free
sick
##its
everyone
body
power
##ok
number
sex
##uct
certain
alm
##ime
coll
goddamn
##up
##ley
##olog
against
comes
adm
mess
rid
sn
##uc
forg
ret
tried
pap
sal
rob
stra
##ton
##ward
def
hus
dog
bur
bud
cal
ele
later
##eral
##ax
fell
white
sent
##sy
##ped
full
reg
party
jim
##ole
pat
##orge
ship
##artment
game
street
##ks
##ject
grand
##inc
eyes
inside
##ipp
##band
##ient
##eric
though
art
waiting
excuse
##led
shouldn
husband
pet
touch
pie
hands
country
##als
arr
fifty
murder
es
secret
months
##pid
lik
wind
americ
sister
drop
sweet
##hin
almost
means
##att
terri
##iet
sus
##ude
cur
##aps
pain
its
daddy
fall
conc
women
died
either
sing
stupid
thirty
##00
win
leg
along
million
office
##ape
##lin
fil
red
dinner
city
sam
finish
george
dra
##ush
##teen
wear
record
tea
##so
##ler
##ised
##anger
maj
##press
running
drive
##ator
beat
##ters
##aken
##side
bob
mag
##ital
living
behind
sub
betw
line
between
hang
##ms
mem
##sel
##ures
build
seems
sense
president
##oice
feeling
##ides
##ield
unc
clean
lou
ra
sat
##ets
prop
nat
started
lady
##ience
alive
##aughter
chang
##ured
boys
##ular
rich
ann
bel
dear
order
##umb
figure
seven
mid
mus
##med
state
able
scared
##shit
##vice
perfect
gre
stud
offic
wer
clear
ref
himself
ext
girls
prof
class
also
hor
hair
safe
weren
##ike
bitch
worth
dist
test
##ote
glad
children
vis
straight
##dd
exper
sounds
##ited
imp
med
##cks
##ows
##ract
write
ball
##ider
##any
report
trans
small
##ten
train
complet
dest
land
##ps
rad
lead
poor
buck
bank
dick
ou
cold
##haps
##ric
front
somewhere
perhaps
brought
bullshit
er
york
weeks
outside
##ards
happens
contr
sell
##ster
surpr
lau
mist
ow
add
##aw
ahead
special
king
moment
dire
##ense
##arth
ru
mary
ke
fool
less
psy
##erv
goin
abs
lose
movie
asking
harry
cool
psych
daughter
##hh
##ys
##osp
##itting
taken
##ics
favor
bother
cent
catch
##aster
##ama
inform
##ats
ent
jer
shall
near
fel
key
squ
los
nick
lives
coff
##ram
till
dark
promise
prot
hosp
##olut
explain
fast
##ony
mark
throw
accident
nine
##ubl
pop
##dle
possible
mer
ty
wal
##omb
fre
tot
cond
imag
##ility
oper
##ines
company
danger
vi
##co
##lly
##ief
fair
bes
##uce
##iting
human
teach
ca
wall
leaving
paul
picture
lock
food
mart
past
##vin
begin
##ically
hotel
##ior
resp
fly
max
##gry
##ount
thinks
priv
control
hospital
tired
rep
coun
dress
learn
##ced
except
mouth
##ern
save
##ale
top
##ship
##room
miles
mich
super
aff
##airs
rather
##oc
needs
calling
piece
dav
##ze
joe
looked
offer
worked
quick
kiss
##ction
questions
wonderful
lucky
known
playing
ought
dou
##cent
##ency
dan
pur
##ative
cover
disapp
mister
##und
works
buddy
gent
publ
##ces
##erg
personal
cost
words
doin
fix
none
pen
##fort
##gan
##vis
##oun
coffee
##zz
pleas
mach
blow
park
pos
ride
step
general
laugh
carry
flo
earth
ray
rose
##uts
##unt
bag
##ark
sun
jeff
music
pal
vict
meeting
honest
##stem
parents
##bt
attack
jud
apartment
major
##igh
system
destr
protect
cas
##br
##amed
drug
kidding
charlie
tre
vir
consider
##he
##ession
treat
##ined
honor
##ove
##oul
meant
cann
##ized
mis
##ones
##idence
press
marry
felt
bas
burn
##ists
invest
interested
david
##ode
seeing
smart
val
stick
spend
court
eh
##terday
yesterday
tele
fe
##ately
clock
paper
others
date
sid
##ald
##fer
conn
command
##selves
besides
boss
##lish
##vers
sev
giving
cry
takes
##uation
dem
ord
##ma
##bar
fucked
strange
invol
##ific
army
talked
road
turned
ill
##die
##ants
enter
##bor
ups
cloth
blue
swear
information
ran
##ael
##joy
smell
simple
creat
lord
grow
respect
worse
##ift
um
##iam
##ball
##ene
cops
##ef
##ided
loved
become
absolut
walter
lar
reach
stri
outta
chick
worried
paid
certainly
##iot
short
fault
bird
kick
mention
##go
pack
##ming
prog
happening
ir
##ney
##irth
prison
##ls
##lex
knock
sol
changed
bor
bast
lunch
##nes
drunk
strong
michael
##ues
suit
bri
jew
sold
terrible
##ik
##yer
pract
cannot
clothes
hop
jun
##eth
gold
conv
unless
handle
plane
feet
store
slow
american
caught
dam
gar
tough
chief
hasn
rock
uncle
hist
enjoy
early
mama
nor
##aa
##ged
quit
assh
fifteen
eye
deep
given
cab
pea
##vious
##inger
##oose
boat
middle
##ities
ones
sher
adv
##ully
##ances
figured
destroy
bust
##vern
neg
comput
##ette
return
mistake
public
tur
tick
##ories
nothin
busy
building
forty
private
den
norm
##esh
twel
twelve
brain
peter
bath
birth
hid
lying
mot
evening
trip
jimmy
absolutely
jump
wed
##uff
anim
appre
bucks
sand
wit
wel
broke
##ages
cross
watching
base
##gr
killing
##ov
##cri
##bers
weird
##ury
moving
careful
foot
breat
##me
choice
truck
clos
acr
radio
upset
cash
ell
ring
##yn
##ently
letter
fut
##bo
tor
quiet
detect
completely
lay
##bed
anywhere
agent
situation
arrest
kept
respons
fed
##over
##ism
longer
liked
cat
card
##ives
##itive
form
##irt
arm
kinda
difference
english
commun
##oken
james
mike
piss
tv
##ety
loc
##ission
imagine
dev
problems
involved
19
da
low
##cess
##gn
govern
club
appreci
born
ice
##oid
##old
##come
##ments
box
third
##oup
space
##ational
doubt
bott
bomb
##ench
carl
afterno
esc
dangerous
history
alex
bout
ris
wood
##tin
##oud
##urity
##ili
realize
floor
ble
fear
main
island
hurry
interesting
likes
van
fort
##used
calls
service
team
books
future
afternoon
nerv
##ium
##gar
##oof
sudd
##ume
relax
nervous
sudden
sad
doc
proper
dig
occ
sil
##erve
screw
camp
finally
instead
green
viol
wake
##oint
obvious
discuss
entire
dun
sitting
##ping
hall
##urs
neigh
##ilt
johnny
finished
officer
cir
cig
dance
jail
rom
sake
wow
##yle
security
board
message
visit
fat
gee
##ring
##ray
station
self
killer
machine
##uring
allow
ce
eff
hmm
lad
nin
##ulous
cla
##orth
jake
ted
eddie
darling
possib
steal
ver
##uke
circ
ger
opp
tem
table
impress
belong
across
cam
##ots
fred
needed
roll
post
glass
colle
natur
fish
##ina
##idge
##stairs
prod
missed
staying
pictures
dude
lim
mod
stopped
account
picked
decided
totally
bunch
west
##te
##urch
##lfriend
accept
owe
welcome
age
##ering
church
##ounds
girlfriend
college
hom
san
tape
##rey
shop
connect
peace
bought
##ugg
##illy
somethin
window
direct
disappear
cook
fol
##cut
##imin
goodby
spl
wrote
horse
asshole
fill
##mit
mac
lots
lawyer
evil
witness
hy
forgive
investig
bastard
##nie
##fully
##lo
##iter
emp
apolog
hungry
goodbye
cong
eve
south
##mas
requ
gotten
missing
##ogra
contin
appreciate
tast
##aven
##atic
##ened
heal
join
##avy
computer
cast
##ino
sugg
hardly
contact
##key
suck
phil
present
av
est
voice
##night
##oon
##etic
william
amaz
holy
calm
cigar
cow
equ
gard
hide
##etch
weap
partic
prep
address
named
force
##ills
##onel
enem
##view
wearing
fur
sett
soul
##uel
##bi
##ann
##ices
french
usually
moved
christmas
deliver
cell
dumb
corre
wild
ange
##pped
##ru
##how
lived
driving
awful
papers
louis
program
dying
kar
##pin
##to
threat
##ana
prove
price
color
department
forgot
suggest
russ
##ky
##aine
quar
pard
##une
hero
fail
##cially
charge
surprise
field
roy
heaven
##iment
saved
smoke
elect
suspect
##ination
##eng
hadn
phot
appear
mas
master
##king
nose
princ
##ica
sail
marri
standing
imposs
hook
##ham
whose
putting
gas
mir
##gu
suff
ground
idiot
track
billy
single
bow
##ai
##ester
##uten
crime
##ipped
impossible
band
ant
phys
lieuten
defin
##vision
song
listening
farm
government
jul
##friend
##ether
summ
##ico
const
##ogn
diffic
attention
sens
##ians
load
loves
mov
reading
gives
##uthor
colonel
draw
lab
##bit
joke
percent
recogn
appro
obs
detective
lieutenant
movies
push
round
sea
##work
##ature
##ute
wash
##aces
divor
dreams
correct
dat
fit
hol
pot
##arch
stuck
bro
boyfriend
##attle
film
pleasure
birthday
cust
yell
##ruct
neither
##cious
starting
paris
terr
extra
sheriff
cre
rick
##bb
##iday
pray
using
clar
walked
experience
beginning
drugs
wedding
neighbor
beer
beach
share
neck
##ify
guest
ways
block
surv
promised
spec
earl
surprised
folks
pardon
aud
hen
mc
##ified
spir
relation
ridic
records
##vy
##ille
##ules
closed
level
blame
admit
america
type
##hood
whether
notice
comfort
twice
writing
group
fired
##lemen
dollar
gh
mitch
##bur
thom
##ston
fright
mission
charles
wondering
jerry
code
vac
##gue
##owers
##uty
##icide
##aged
cred
admir
normal
civ
during
nuts
rain
guard
partner
smok
walking
brothers
evidence
fighting
depend
judge
gift
tight
##uit
shar
asleep
exp
exam
broken
##ished
crash
tech
trick
memory
##ograph
difficult
pin
tal
##aked
talkin
bye
crap
cute
holding
guns
ridiculous
dor
names
silly
tar
tap
##por
##cy
##boy
##iew
franc
##ager
seemed
marriage
rub
wheel
##iced
plenty
spent
moon
planet
seconds
##pecially
especially
martin
orders
camer
aut
rent
##fuck
##ted
polit
amazing
lam
sle
view
##ron
##zen
##otion
inno
washing
##aud
##place
##pens
particular
relationship
bat
cup
loose
port
##ius
exce
##astic
betty
acting
skin
jean
fellow
position
feed
definite
fbi
lee
pil
river
##la
##bs
tow
##itor
tells
ide
travel
yah
dump
file
ju
pan
##nal
##den
beg
forever
##ries
##esty
plans
intr
buzz
##fast
exist
host
decis
collect
egg
north
tax
##rop
##ners
##lor
##ese
mex
butt
hole
weekend
sleeping
breakfast
condition
gentlemen
mal
##ka
often
mel
note
##oop
proud
search
brown
intell
lovely
remind
pulled
ori
pig
ther
##enny
crimin
grace
animal
double
fant
finger
gri
jan
jam
sar
##iny
stories
worst
##ended
meaning
bridge
clim
##els
grant
keeps
faith
sym
bobby
nur
tear
##par
heavy
within
scream
crack
contract
patient
arri
queen
##ploy
tommy
sixty
seriously
victim
bathroom
rout
##que
bear
organ
embar
support
attract
detail
##ology
nature
mmm
opin
##row
##ez
##iforn
scene
swim
played
##ancy
californ
terrif
danc
odd
angry
andy
##ung
univer
##bert
##ips
desert
seventy
health
summer
##ishing
rece
##ires
gettin
champ
succ
agree
advice
##while
object
nurse
crew
##eg
##of
##min
##men
ital
repr
shock
area
feels
feelings
##ption
concer
civil
california
000
lang
##pap
##read
##ada
##icated
ourselves
bal
cree
games
mass
match
rules
##rass
##kes
##here
iss
stole
##eech
plus
places
##ender
spot
##ints
henry
ber
bod
page
yo
##iant
##irty
arch
bruce
cock
harm
perform
profession
gentle
jeffrey
television
techn
washington
embarrass
author
dirty
rand
keeping
insane
murdered
majesty
medical
complete
##heart
effect
split
apologize
##ength
innocent
coo
du
ly
##aff
##wood
##ges
##isf
##ises
onto
chea
##itten
agre
blind
built
assist
pretend
committ
keys
hiding
gim
##light
willing
leon
##oyd
event
gener
##ences
learned
profess
favorite
credit
definitely
mix
##cer
##gas
##ye
##ution
bell
lic
##rick
herself
##ument
immed
lately
ghost
success
jour
las
rough
##ral
##enn
##ena
##itude
##ander
speech
project
charact
custom
immedi
##ford
##ki
##ging
##ero
weather
knowing
##amin
convers
amb
marsh
flight
##acy
prec
simp
shooting
study
enemy
dave
luc
pu
tit
tree
##eed
stan
##urance
cha
upstairs
scar
holly
craw
showed
teeth
trial
shoes
incred
robert
training
marty
risk
settle
due
lind
nig
rap
##field
##ss
weak
stock
states
##elly
scr
##ettes
senator
following
losing
obviously
ug
##yond
##za
##ano
beyond
##enth
soft
##olf
client
emerg
crow
ident
interview
harold
decide
apart
copy
speed
fella
dropped
magic
subject
richard
horri
empty
sant
##let
##wise
necess
brad
grab
newspap
curious
##ountain
ticket
responsible
devil
origin
opinion
concerned
##rat
somehow
smith
greatest
action
warm
eating
locked
claim
admiral
introd
pool
path
##iat
waste
whoa
pock
heads
hanging
virgin
chicken
possibly
taste
cous
rome
ram
wine
##itz
stone
##oph
##icle
brand
motherfuck
paying
drinking
airport
corner
sweetheart
legs
satisf
##iliar
suddenly
professor
gang
taught
vide
##ration
##town
##oned
##omm
lied
lloyd
sund
letters
##achel
prefer
incl
victor
data
spirit
thomas
30
hat
ol
tie
ur
##iest
##val
chair
swe
mommy
famous
familiar
numbers
magaz
german
ban
gord
ign
##cus
##ker
##arm
proof
##ula
seat
themselves
##ortun
scare
scott
runs
turns
susp
purp
commander
opportun
excell
gimme
dry
fle
sight
##aur
##line
##ening
##eter
lift
ash
sugar
##ulations
grad
career
##othy
desk
##otten
raise
satur
cheap
boo
rat
thou
noticed
##antic
tru
switch
laur
common
personally
danie
intellig
simply
gal
ros
size
##lu
##ville
##ered
##oming
held
forward
comb
##velop
afford
request
saturday
duty
jason
kay
mick
nail
ven
wound
##head
ang
##ased
##ste
suicide
vegas
deg
##usion
comin
bright
cars
nightm
##ization
checked
sooner
complain
natural
repres
fem
vol
haw
stat
spoke
claud
science
laid
insurance
prov
attorn
##ibility
passed
director
freak
junior
decision
character
cy
lone
mcc
oil
pants
ry
rum
sour
##da
heat
ham
##alous
dont
##icious
lookin
monster
appar
mostly
##wards
annie
large
norman
dunno
further
dorothy
ugly
emergency
horrible
sunday
attorney
bon
tour
##mission
fore
##imate
fresh
arg
arms
bug
scient
otherwise
employ
sword
bigger
shows
design
descri
excited
drag
distur
borrow
eth
hired
weight
##ils
helped
adam
starts
##iction
doctors
hunt
eleven
regular
quickly
breath
recognize
ideas
10
aust
bond
dom
hill
hors
mountain
rab
rip
##asons
rele
stars
sever
lights
madame
discover
concern
escape
property
ladies
conversation
##stein
cit
eur
gam
jos
jac
pounds
wil
##istic
brit
helping
access
jealous
sneak
dogs
arrange
perfectly
busted
bottle
broad
vacation
francis
cousin
aunt
fan
gall
lond
mood
row
wise
##well
##house
##mer
##orter
##eds
liar
develop
expens
sport
##ago
accord
driver
goddam
speaking
england
sales
rule
blew
congrat
mexico
lonely
bay
nah
whis
rev
##lyn
plant
scot
scri
mail
matters
planning
watched
beauty
milit
##uction
bodies
license
immediately
gordon
london
kr
ken
kitch
lake
luke
mm
nar
ye
##ored
##ites
shr
stom
soci
##ication
whoever
friday
##ilty
guilty
everywhere
joey
deserve
eighteen
##ground
comfortable
terrific
langu
kitchen
lines
non
sin
til
##ts
##time
##ya
##inary
react
repe
nope
upon
##elle
##using
exe
commission
damned
snow
total
crying
mentioned
pissed
quarter
criminal
bite
east
##ores
##sey
##ches
justice
##rage
##earch
cares
trade
energ
remain
johnson
pregn
expected
secretary
leads
market
positive
talent
11
awhile
cream
corn
national
patter
##ien
##gest
##ued
threw
storm
##ades
sees
assign
strength
answers
hoping
local
cele
garden
gentleman
pocket
truly
dise
kir
nic
##nel
tooth
##asy
##ality
social
imm
pair
bringing
eighty
expecting
engine
carrying
practice
bottom
weapons
camera
purpose
citiz
europe
celebr
bum
corr
ms
witch
##iers
##inct
##ato
##ids
stew
chop
sue
manager
##akin
buff
written
poison
leaves
elaine
sky
grave
benj
susan
danny
18
cards
gay
mat
mut
vill
zero
##ees
##ining
theory
whom
##ida
nowhere
##uses
brill
drove
united
hearing
surr
extre
square
teacher
disappoint
pressure
##board
allowed
approach
opportunity
script
execut
fund
tall
##nin
##bing
itself
##ising
##asc
meat
##tern
usual
plain
whenever
express
spare
nights
believed
##perate
research
##gging
sometime
indian
milk
files
loud
center
damage
battle
faster
mall
net
pun
tun
##af
##ived
##gen
##bly
reasons
##cha
chic
##icate
##essed
spock
unh
became
writer
##ache
##anged
stayed
shower
tex
jacket
opened
bedroom
aware
federal
naturally
smoking
wire
##ients
##ga
##iner
##asing
##asion
heh
above
depress
##oles
enc
quot
emotion
hild
serge
appoint
pete
dressed
teleph
sidney
larry
birds
incredible
energy
ment
mob
map
##oat
##back
##ita
reck
lif
ate
spring
cole
flat
assume
easier
followed
sexual
refer
balls
burned
destroyed
weapon
benjamin
20
ba
cart
ears
jane
nut
##con
##tor
##tle
butter
##icy
##itty
surely
older
serve
inspect
##roll
brains
bloody
jerk
county
animals
fortune
neighborhood
frightened
mickey
represent
apparently
according
pattern
sergeant
aye
cub
jose
punch
sna
thurs
chap
log
carp
blank
tryin
biggest
serv
restaur
indeed
operation
flying
closer
divorce
naw
ot
pure
##sie
##kins
##bon
shame
shirt
separ
##osition
##ending
ours
plays
player
##gged
awake
pieces
legal
turning
continue
princess
mitchell
necessary
includ
magazine
ryan
stomach
thursday
bare
tip
wet
##cle
thy
##erm
anal
staff
chem
however
##unce
goodnight
thoughts
flowers
babe
picking
bullet
powerful
defense
century
##fortun
arrested
investigation
russian
physical
congratulations
bern
cos
jab
led
oce
vall
##rant
##gy
##gers
##itions
alb
##ement
unfortun
disg
recall
behav
##ipper
falling
psychiat
responsibility
silver
cigarettes
target
hollywood
video
british
language
hildy
jap
jury
kane
lis
nap
rod
ta
##case
##uh
##imp
print
loy
leo
unus
blond
##izing
activ
breaking
signal
##under
boring
crowd
bones
hm
lap
mater
pow
pump
tay
##iod
##iation
##pir
##uz
##ha
dozen
##cker
##ural
letting
among
##empt
throat
flor
sonny
funeral
final
buried
streets
magn
mirac
earlier
eggs
issue
linda
disease
chicago
dish
fi
pear
vul
vamp
yep
##ev
##itation
##stand
chain
alan
saving
tellin
##aker
lemm
margo
buying
period
strang
simone
virus
illeg
enterpr
negot
baseball
prepared
terror
tapes
professional
excellent
unusual
hated
junk
mort
pink
pills
##bage
##zo
shield
knife
stink
chest
someplace
unl
beth
joint
swell
maid
trap
laws
steve
##ipping
nearly
strike
daniel
society
loyal
taylor
15
fab
jess
pee
pers
rh
##ex
##oci
##ture
##mon
youre
theo
##eding
doors
shift
manage
guar
unf
waited
understood
tony
process
##aced
charming
signed
riding
freed
practically
connection
disappeared
williams
mask
depends
pilot
lemme
dust
naked
rachel
wade
##ket
anna
shark
##ulation
trunk
downstairs
coat
huge
associ
disp
recomm
accom
clever
##etti
brings
sending
forgotten
robin
concent
changes
ordered
selling
cabin
woods
sailor
italian
motherfucker
pregnant
brilliant
joseph
guarant
cath
pill
roof
sally
##father
##oil
##ule
whad
##reen
inj
knight
stol
prim
##ications
##ateful
spell
trad
unif
moves
emper
kidna
surf
ended
elev
##olution
typ
##inese
negative
ellie
cowboy
clarence
slept
emperor
cult
fal
pian
rush
var
##ror
##res
##rate
##gie
##ona
toward
shape
lies
cancer
##pping
##ilities
saf
seal
##ipe
finds
smile
attitude
dealing
baron
opening
confir
instruct
sisters
##rica
steph
laughing
hyp
equip
angel
royal
dancing
military
behavior
japan
enterprise
uniform
lat
ox
rate
##eal
##down
##off
##uv
##yl
##ym
rever
##lect
talks
grown
impr
holl
monday
trail
sched
invite
relig
##ledge
ruin
opera
fixed
sevent
brief
assistant
several
restaurant
12
dign
nons
rare
##oved
thor
##ini
##ators
whore
chinese
##ulate
spread
amy
downtown
parts
carefully
headed
complicated
artist
clearly
expert
hmmm
ocean
fing
fake
kelly
math
tong
##nn
stab
chat
choose
thinkin
rights
clay
##eline
firm
fac
heading
rooms
commit
jackie
pulling
corpor
##ension
member
transfer
yellow
committee
newspaper
jacqu
equipment
nonsense
dent
dum
hates
pier
ron
ren
tail
tues
vice
yard
##ders
##ux
##bling
thief
##esar
##rel
##ceed
noise
cance
likely
cho
deb
france
loan
lect
##bel
##agne
grade
partners
actor
##athan
showing
wondered
ends
thousands
confused
touched
midnight
entertain
created
progress
garage
##aaaa
romantic
avoid
princip
survive
fantastic
arrived
horses
telephone
material
tuesday
jon
sie
##ox
##otic
shhh
clark
uns
coast
reality
result
jobs
slight
diam
sixteen
planned
terry
##ashed
##ashion
decent
defend
regret
cigarette
sarah
screaming
journal
cents
dirt
fasc
gain
les
pir
sed
tab
tank
wes
wend
##ele
##cl
reed
style
wasting
##urt
##ila
##asty
##umst
amount
##eless
score
monsie
insist
fourteen
##phy
compet
invited
incident
##ological
burning
caesar
covered
solid
occur
anti
divorced
audience
details
agreed
santa
original
repeat
jabez
stolen
seventeen
diamond
monsieur
dare
gate
mile
rail
wolf
whatta
beau
lips
##vert
##cher
##eez
##itted
roger
intern
##gger
drinks
millions
passing
##ologist
banks
ruined
kicked
scratch
nightmare
female
freedom
fried
fancy
fashion
naz
nerve
por
pant
##nis
##agh
##iber
##lies
##can
##yers
##vent
##anz
hal
liz
liqu
chances
deck
sean
armed
underw
grateful
finding
friendly
##iac
desire
priest
##swald
frankly
passion
falls
official
creature
soldier
hidden
occasion
belongs
karl
photograph
therap
univers
kenned
extrem
texas
bax
cher
ep
fer
gig
guts
jones
lor
oswald
##fle
##ware
theater
##eday
##asure
##reau
##ential
prince
someday
##abitch
spoken
mayor
carter
##ouses
betray
impl
permission
mont
assum
terms
barn
humor
##uced
##ucle
curr
experiment
lesson
affair
oughta
attacked
growing
garbage
ninet
product
route
universe
champagne
kennedy
baxter
bound
bang
cyn
fought
lous
wy
##oll
##mont
reward
web
gosh
##rie
alarm
##olic
bureau
coke
##agon
emb
poet
acqu
flesh
understanding
insult
famil
meth
prior
confidence
##nold
brave
steven
staring
patrick
central
squad
counsel
##ocol
honestly
value
smells
circumst
temper
model
avail
##rupt
electric
mixed
intelligence
francisco
negoti
100
dim
hire
mul
nun
range
##ige
##ses
##oot
##gl
##mond
##verage
dece
##iles
sayin
twist
fucker
##road
attempt
policy
term
jesse
edge
bills
influ
learning
wallet
offered
pleased
congress
castle
guests
performance
pupp
title
chaunce
foreign
expensive
appointment
valley
illegal
piano
chauncey
dies
joy
mack
opt
puss
rig
##ris
##ij
##ially
##for
##sa
##oe
##kin
##oms
##reck
##stone
soph
chall
##iling
##ushing
##ague
male
realized
badly
traff
frankie
hunting
instit
singing
statement
psycho
loser
nicky
trees
knocked
tickets
claire
impressed
gardiner
citizen
reckon
safety
fingers
tongue
lousy
families
available
50
fishing
gab
hay
matt
miam
nurs
rack
##ios
##bles
theat
##seum
knowledge
##oops
china
##rap
fro
agency
trace
resc
resist
sonof
desp
shoe
exciting
checking
younger
hung
murderer
secrets
winter
bored
motel
##ovich
screwed
create
tower
victims
attractive
introduce
sweat
emotional
extremely
miami
25
ast
boun
duck
fag
gear
hob
kath
nucle
pad
pour
peel
ul
wid
##eer
##ault
##ca
##wich
##erves
##ara
##utation
sha
shad
forced
stood
stamp
liber
aband
##osc
cloud
kills
hud
phill
craig
series
reserv
commer
cheese
steady
facts
paint
distance
destiny
counter
casino
demand
advant
breathe
escap
ninety
glasses
##load
panic
discovered
unhapp
disgust
bart
cake
fra
grew
mum
nasty
ward
woke
##iving
##cul
toby
whack
##rees
doyle
novel
##enture
##oooo
wanting
##ril
##rib
##rict
shel
section
spook
spoil
unit
moz
##agn
scary
##thy
stretch
invent
genius
confident
signs
benef
regard
student
medic
popular
demon
deny
climb
including
miracle
cad
dil
kim
piz
porn
race
tied
umm
vinc
vada
##oard
##cil
##mother
##vard
toil
toss
##enna
dope
##sters
stage
##che
##ado
##ante
aboard
shelly
chann
anyhow
veh
fruit
goodness
drown
museum
##atherine
eliz
crit
swing
fav
recover
appl
fourth
cutting
edward
##ception
##ival
explos
painting
reporter
penny
miser
border
example
autom
##ropri
odds
authority
bible
bail
mere
na
os
patch
pitch
vers
##de
anne
##isc
reven
repl
beam
##ador
##allow
aside
cham
chew
howard
##aint
season
comr
##uman
agnes
intend
gray
kidd
parties
monkey
##ansas
boom
boston
recently
apple
finan
preach
desperate
educ
metal
miller
##ivid
reasonable
determ
register
bothering
throwing
reputation
spending
soldiers
community
impression
filled
karen
russia
holiday
jeanne
creep
cooper
romeo
satisfied
inspector
lisa
jessica
batter
dip
fate
ves
viet
##lig
##zing
thee
##esa
anx
##arily
meal
##sty
neil
sheld
chin
##ican
alice
albert
wherever
##ability
##uments
qual
helen
minister
flash
babies
termin
tricks
capable
diego
engaged
windows
terribly
cleaning
louise
studio
conduct
affect
bags
considered
ranch
breathing
enemies
construct
loaded
political
routine
nigger
source
recommend
nineteen
traffic
sonofabitch
nuclear
mozart
medicine
60
aven
cert
diz
kat
nation
nix
pist
powers
rib
tag
tits
##rist
##dom
##dia
##bery
##atory
##kee
##ales
##imony
lip
libr
##illed
pred
dew
lob
brook
shoulda
mole
coinc
mustn
thrown
cheer
walks
##ggy
chriss
barry
easily
hurts
lawyers
bullets
murders
starfle
##ensive
admire
bury
memories
changing
purs
cases
misery
convinc
motor
possibility
stealing
empire
ricky
particularly
lydia
ashamed
rabbit
blonde
pearl
guarantee
circumstances
unhappy
starfleet
bun
bert
cav
cats
dea
diss
et
gale
horr
ku
link
lomb
lenny
mic
vo
##iar
##ties
thin
##erved
thel
knees
cand
chasing
alth
##istry
##ols
##abeth
contain
offense
puts
kinds
flatter
serial
##icted
harder
points
confer
explan
madam
susie
members
dickie
##nesday
jews
wednesday
sandwich
ellen
failure
sensitive
pathetic
release
jacqueline
elizabeth
14
drew
hanna
lun
lack
tiny
wing
zoo
##rog
##ique
##oh
##lus
##uate
##mp
##erc
##anie
##ares
##oted
##uther
review
suits
frances
sale
orange
##ucker
trou
union
blast
blah
screen
becoming
##ples
cru
adj
##quir
morph
owns
strugg
prick
standard
interests
infect
confess
trusted
dreaming
starling
##apped
grandfather
foolish
caused
walls
superman
machines
systems
brian
jewel
basement
veron
janet
ghosts
laura
claudia
disturb
josh
barely
accompl
advantage
##ropriate
lombard
cure
catherine
hoo
ii
jeez
kent
liter
nathan
punk
rag
teen
wick
wreck
##eb
##cra
##gun
##bl
##edy
##reg
reh
shake
candy
##rier
pros
exch
conce
shoulder
crush
courage
bread
focus
thirteen
shots
##azz
handsome
winning
greg
officers
vision
experi
direction
respond
virt
based
convince
football
alexander
produc
philos
constant
sharp
jamie
successful
argument
ethan
narc
shrink
kirk
florida
robinson
false
pussy
although
der
lester
ped
pic
pac
tent
tub
vit
##oom
##pher
##caine
##we
##ww
thumb
##ases
init
doe
##imes
button
chocol
##iece
lets
##icks
clin
cocaine
smo
remembered
launch
proced
ahh
capital
skip
hits
grandma
arranged
americans
curse
cleaned
below
refuse
valu
effort
directly
appears
mirror
##bbie
eventually
schedule
frozen
veronica
ach
bone
dime
duke
hes
jet
kurt
lower
wand
wide
##aid
##gain
##hip
##ygen
##eration
andrew
relie
bein
beast
habit
stake
myst
myster
outf
##ella
debbie
lois
##ittin
wayne
workin
##belie
marvel
image
warn
warri
hurting
holds
##anced
setting
movement
humili
snake
robbed
fully
sweetie
transport
counting
doug
considering
burns
iron
jewish
assholes
dawn
dunbar
tempor
shopping
angeles
##burg
embarrassing
ambass
village
otis
unfortunately
instructions
oxygen
toilet
miserable
financial
vessel
ded
dud
eric
gut
gather
houses
lit
navy
rif
rope
tas
tend
##rated
##nam
##fred
##kn
##ktor
##book
##bows
##vable
##atives
inch
rex
beef
##illa
neat
sheila
##ops
atl
worm
sacri
plate
##uls
##ulse
exerc
march
marcus
badge
faces
served
stroke
recon
charley
warning
surge
bargain
senior
fifth
graham
possession
passport
individ
engage
budd
trained
loss
viktor
parking
trem
basic
stronger
##estern
juice
swimming
healthy
objection
ignor
degrees
describe
separate
fascin
wendy
university
bree
ned
pound
pity
rot
tu
ut
##path
##oma
beck
hack
golf
stones
##chan
##ader
##pper
wore
fran
##ilar
lover
loving
coulda
##ifer
guards
conven
clown
league
##pert
cruel
minor
trave
minds
policeman
tests
parker
misunder
ordinary
package
violence
witnesses
prepare
suffering
bowling
politics
suspicious
tunnel
carpent
psychiatrist
elevator
revenge
thelma
explanation
chocolate
smooth
ambassador
sacrif
cob
cable
cia
fart
horn
jill
kin
kil
kansas
ni
oak
vote
zone
##rake
##iable
##worth
##mber
whist
##aring
##ota
##omes
heck
heather
replace
hamm
##lder
##iring
chase
sav
bride
carried
cris
assass
##cient
stranger
paran
slip
##plex
attend
fox
chris
depos
sexy
patients
ships
kevin
basically
reached
elliot
location
bleeding
occup
delivery
committed
journey
customers
services
wyatt
challen
conference
13
21
bour
cere
cott
dall
dough
fuel
gitt
hills
lyn
pit
sore
wat
##rison
##bled
##onse
toy
##omp
##vey
mechan
##stit
ford
forest
stairs
alco
sac
##osing
truman
cliff
worker
africa
blown
marks
intent
scan
scen
gods
gross
flag
supper
##epend
##quis
div
johnnie
barbar
senate
giant
stands
darlin
higher
highly
promotion
lawson
compliment
instinct
goddamnit
grandmother
leader
leading
bothered
personality
pleasant
palm
basket
closing
entirely
failed
tears
claude
provide
revolution
assignment
japanese
influence
theatre
escaped
jewelry
valuable
mystery
gittes
average
cage
han
hood
hitting
ira
mck
mig
roth
soup
tan
wig
##rit
##rance
##li
##inting
##isher
##etta
##reak
whats
began
shakes
forces
stiff
steak
notes
noble
##aming
##rian
##esth
dean
deeds
alter
alien
plastic
##ulf
exit
agents
clo
env
drum
unbelie
intention
##agger
underground
##bley
helps
##play
lotta
stops
assure
headache
##prints
charges
warrant
##onscious
surg
events
shotgun
independ
instance
deputy
goddamned
article
satan
testify
palace
treating
##ification
slowly
jumped
neighb
freddie
newspapers
virginia
snap
railroad
ult
avenue
hannah
individual
dallas
alcoh
17
40
bump
dating
fee
gest
gary
mant
makin
sink
##wray
##gle
##xx
##moon
thick
##esis
##rell
haul
shore
shown
##verly
##odes
sheets
chip
suz
device
manner
agg
bless
crook
supplies
mighty
struct
proceed
diane
dealer
prevent
hundreds
capt
barnes
decl
##ugs
confession
##enced
delay
honeymoon
laund
marylin
maxine
treated
turkey
sandy
fortun
teddy
estate
julie
labor
lampert
collection
sympath
degree
austin
surrender
network
tradition
dignan
sieu
method
mulwray
rescue
commercial
convinced
adjust
exchange
outfit
marvelous
45
aim
bars
cave
hust
jenn
mason
nort
oz
puff
rank
sire
tig
##mo
ancient
stor
lick
##eeze
##outs
chart
chuck
##ician
##anda
##essa
altern
woulda
sem
spin
happiness
asks
wave
jokes
remark
swallow
actress
supply
trapped
struck
boots
glenn
pays
trib
useful
indust
salv
psychic
protection
negro
mikey
geez
impressive
homicide
holes
taxi
precise
lucy
intelligent
reaction
mental
lifet
chemical
therapy
hudson
coincidence
horror
cotton
jennifer
22
24
aid
bol
core
dy
duff
ease
jenny
mam
mate
nest
rud
rac
wad
wings
western
##rand
##ois
##erk
##otch
thats
beverly
steel
##adem
shell
herr
seek
alvy
sew
##umn
clue
##eman
marge
rocks
joking
musta
monitor
flies
fletch
parad
planes
prem
sounded
prize
checks
billion
answered
patri
announ
distract
testimony
radiation
tyler
teaching
begins
costs
protecting
strict
golden
computers
former
governor
discussion
estab
delivered
suffer
bowl
symb
champion
crawford
loyalty
webster
shadow
pizza
channel
pistol
paranoid
bi
bul
bald
cri
dee
dull
fri
fever
gus
il
jen
lula
nik
ooo
pent
ruth
tam
yards
##uary
##bid
##bits
##vest
##oura
anth
##aries
##itlin
##omfort
inn
reb
##idate
##illing
soap
ability
outa
wanta
sucks
debt
##osa
##osite
exists
complex
##ears
span
spect
everyday
trash
lex
pean
unp
mars
scra
poem
adult
homework
academ
moral
owner
interf
boats
warned
harvard
trigger
editor
breaks
skull
worrying
admin
robbery
sentence
films
satell
profit
reports
jersey
beside
caitlin
privile
dana
enjoyed
crossed
torture
freddy
limit
homer
colored
appearance
juliet
washed
species
received
embarrassed
wounded
salesman
scotch
remains
underwear
disgusting
confidential
vincent
vehicle
chamber
rifle
unbelievable
200
aug
cu
dw
hou
kit
malk
pages
rude
vin
vick
##ec
##nat
##dra
##pa
##lv
##gent
##yard
weal
dool
##ckey
forth
chee
##opard
##icing
##race
##igan
sector
##osen
argue
compr
background
spr
tran
##bels
##thia
becomes
askin
grady
grass
believes
##ached
waitress
flower
actual
##ordin
##quar
moron
mornin
internal
schem
##ggin
tries
presence
eaten
figures
instant
salad
burgl
touching
raised
belt
students
dickson
darkness
casual
treasure
investment
bastards
document
properly
silence
connected
coward
cells
territ
specific
italy
berlin
cockta
fleet
statue
designed
ripley
analy
vulcan
strangers
religious
cancel
occurred
beaumont
cynthia
##force
construction
brooklyn
philosoph
carpenter
iraq
neighbors
malkovich
kate
lt
lung
om
pony
raz
tut
tone
takin
yup
##form
##walk
##gs
##ua
##uits
##hib
item
##itar
height
dod
##str
##sem
##sequ
##ura
##hern
chosen
managed
gum
spar
cared
##ously
enorm
##ortion
blade
feelin
flow
boot
diet
wars
warren
glor
harbor
tripp
precious
compan
##anca
related
##otted
signature
delight
salt
fellas
patience
singer
district
mistakes
locker
response
##unders
steps
treatment
democ
creatures
strip
packed
dammit
federation
settled
threatened
threatening
photo
dumped
granted
effects
stanley
angle
volunt
surround
executive
surface
##uva
reverend
pirate
counselor
library
lifetime
bid
cant
fry
hatch
hank
luther
rape
tact
tatt
yess
##egr
##oves
##low
##col
##xual
##hold
##jack
##esp
##omic
##ays
##uries
chill
##ryn
##icles
hers
alfred
saint
plat
##oses
##osal
arth
willie
##augh
didnt
spy
##aging
helluva
firing
poll
flu
asses
resign
slave
slaughter
appeal
appropriate
##roit
breast
edie
highway
evan
grail
oblig
hearts
column
detroit
incre
collar
messed
retire
concert
##lines
uncomfort
mercy
affairs
kissing
teleg
ordell
solution
suitcase
hoped
june
adventure
closet
196
campa
modern
sucker
julia
existence
germans
nightmares
bugs
sports
vampire
fabulous
loretta
widow
abandoned
lunatic
##known
uncomfortable
16
35
bog
hump
ian
ja
lu
nam
pas
poo
rise
rings
sack
von
vince
wis
##eus
##oes
##cing
##cile
##ked
##zer
##onn
anger
bee
beating
##iments
sov
sup
atm
##rael
alph
sab
saunders
orch
arnold
unknown
coordin
joined
elvis
bush
parole
polite
glory
foley
invis
pale
april
skipper
fighter
brace
dreamed
deliber
freeze
freezing
subs
buildings
raw
media
ouch
lessons
offering
valent
cryst
prisoner
convent
returned
continued
quarters
##guard
farmer
pushed
prayer
lamb
technology
hawk
scientists
mountains
disappointed
depressed
unlike
concentrate
stephen
principal
comrade
preacher
anxious
molec
warrior
buddies
barbara
establish
doolittle
campaign
bachel
cuz
dut
dill
dyn
fence
greet
hitch
kram
mult
nu
ny
nan
oct
oath
rust
ripped
site
##rase
##pson
##cr
##cast
##vo
##enger
##leans
shaw
##imum
knee
##irs
nell
alley
therefore
prose
prints
orleans
ohhh
timing
##abl
spit
concept
##apt
clients
units
mud
killers
cocks
scale
belief
remove
coupl
swore
stopping
assault
##cience
stress
schw
charged
function
sits
christian
geor
factory
retired
fallen
legit
legend
filthy
offices
profile
lands
walt
council
kissed
advance
communist
opposite
##uggie
tastes
potential
creasy
thompson
fantasy
technical
pretending
identify
introduced
ignore
expenses
whisper
whiskey
bernstein
powder
vampires
##standing
shields
culture
corporate
liquor
current
gabri
racket
reservation
benefit
critic
dewey
mysterious
exercise
crisis
storage
cripp
kramer
00
500
ace
auggie
cem
dna
furn
fog
gorge
hint
mau
rang
vig
wip
yu
yuh
##ras
##lock
##wright
##uine
##uated
##mar
##mur
##onment
tod
##ora
##ari
##ashing
inse
weir
hallow
shout
stream
##adel
##irm
neut
chim
pride
ath
veget
##ookie
##ucky
##osph
##ables
consequ
quote
scam
##ishop
imper
friendship
listened
handed
phony
dism
headquar
recru
givin
genuine
grav
awfully
earn
synd
conscience
coron
straw
patr
ess
paine
worthless
##aws
entit
squeeze
frequ
imagination
exception
laughs
victory
casabl
meantime
entering
solve
convention
advise
roman
extraord
blocks
mcmur
agreement
leonard
raped
weakness
scientist
choices
merely
version
education
temporary
task
envir
august
arthur
invisible
headquarters
casablanca
mcmurphy
23
gill
ginger
hut
jur
jus
jazz
moss
mosc
nerves
pushing
ross
wra
##po
##car
##bird
##era
##erick
##llo
wha
##arn
##isy
##itors
ing
inject
##aya
reception
belly
wears
hah
isol
shu
shaking
lily
assem
chose
##icient
##ello
##ppy
frame
##ilton
manners
##osis
werew
##beat
quality
bluff
##action
afterwards
##aches
waitin
poker
##izes
perman
permit
acted
secure
disaster
tracks
owned
moments
tons
booth
contest
controll
##ggie
preys
jackson
useless
decor
genesis
wishes
shuttle
deton
discip
snoop
unconscious
classes
mistaken
pops
conditions
operations
paulie
superior
marrying
chicks
packing
practical
enjoying
dennis
trucks
communications
produce
limits
accounts
homes
drawing
reminds
organization
attracted
random
generous
disturbed
josie
arrangements
rowan
scotty
latest
photographs
cherry
poetry
institution
favour
kiddin
vietnam
sheldrake
nixon
##lusive
##craft
fascinating
structure
anthony
academy
comprom
bachelor
dynam
gorgeous
entitled
extraordinary
aids
bend
batt
ditch
fond
gree
kh
lon
mand
nom
nav
nancy
pup
rotten
tune
tips
una
##ront
##lon
##wr
##win
##gment
##uous
##bie
##zel
##vant
##ja
anesth
##otions
##itect
##omy
hem
whatcha
goose
##aled
##alie
stall
##urd
butch
neur
##essler
saav
plot
##uled
exha
##enda
spider
spark
troops
lebows
peggy
intim
intended
gram
grun
role
joan
crank
crane
adop
faced
handling
handled
interrupt
schm
##acity
teresa
driven
forgetting
##ibly
colon
conscious
pulls
memor
studying
reported
transmission
erin
ruiz
##ysis
fairy
laughed
jungle
jumping
escort
maintain
vanessa
violent
selfish
##ographer
suggestion
mmmm
receip
architect
venice
complaining
gallagh
developed
celebrate
catholic
confirmed
diamonds
epis
twisted
nurses
liberty
shelter
determined
wicked
procedure
achie
kurtz
challenge
sacred
spanish
enormous
prosecut
environment
moscow
preysing
saavik
exhaust
lebowski
gallagher
cind
eg
hose
nas
op
rug
si
sinc
sides
tin
tat
vic
##don
##away
##oan
##com
##ko
##gues
##aton
##ania
tore
##esy
anch
##arter
##otes
##ombley
##asant
inner
reject
weed
##leone
israel
shy
fork
stunt
##ading
myth
##oos
##urice
socks
##rix
##eau
sum
anytime
alert
manh
plug
plates
seattle
comment
spray
sphere
twombley
lew
fucks
dram
unique
blows
marquis
bund
scout
removed
thrust
sweep
smarter
runnin
traged
morgue
slipped
charm
cheat
businessman
deals
invitation
restra
simon
similar
earned
explor
conspir
corleone
instr
##ivers
salary
##iety
sammy
owes
##artha
judy
irish
##cription
daily
digging
tempt
accepted
potato
yelling
audition
spirits
criminals
sympt
civilization
balt
cooperate
ambul
victoria
urgent
suspic
krist
expression
unfortunate
persu
kidnapped
sealed
pierce
international
chrissake
clinic
surgery
aggress
telegram
cemet
halloween
ay
dug
git
gag
ko
kring
option
pud
pike
pimp
pige
rans
ske
viv
wally
ware
##ds
##aves
##ias
##iven
##iator
##pear
##lane
##ken
##kind
##hi
##mate
##ba
##born
youth
##anch
toast
##ingo
whales
##othing
##oman
begging
havin
##idal
goof
forbid
##aded
##hers
suite
sulu
##unction
defe
uses
##oln
##olved
##itts
clerk
envel
integr
writ
##ishment
helm
emily
emotions
##assy
##pton
uhh
active
stays
hears
interrog
boone
slut
apply
##dya
##phia
personnel
finest
ending
opens
counts
relative
hitler
fights
murray
budget
grey
horiz
impulse
merry
dressing
purple
parked
sticks
connell
hopeless
feds
evelyn
philadel
hooker
songs
custody
clarice
##burger
ruby
decisions
taxes
malcol
pigs
customer
crawling
incredibly
combination
narrow
citizens
terrorists
unfair
nazi
phillip
dipl
lobby
troubles
shakespear
tiger
precisely
##otchka
peanut
territory
soviet
deliberately
coupla
envelope
philadelphia
malcolm
shakespeare
dal
kend
linc
length
mun
pip
pipe
sig
ts
tis
uta
wiz
wives
yan
##sion
##put
##lict
##gic
##mail
##zlo
##iture
ink
inher
meas
goal
sheep
shitty
lion
##iro
##ament
##eeee
soda
abuse
suc
pra
prime
debor
frida
maniac
seats
##ifying
guin
guide
exped
exagger
brut
##aph
lean
shoulders
drank
unre
##berg
##berry
coach
scully
wrest
groc
joanna
##acht
waiter
pole
couch
swed
hiya
##shot
slim
diary
warp
sons
cheating
ahhh
shove
obst
##aze
bitter
explo
syn
messages
burke
##attan
curios
##lina
drawn
draft
beats
annivers
worthy
bothers
catching
entrance
merrick
republ
suns
basis
seventh
garrison
norma
normally
motive
closest
torn
laying
locate
clubs
ninotchka
observ
##burgh
martini
skinny
hostile
hostages
grip
issues
flew
booze
daniels
combat
status
mccoy
concerns
assigned
blanket
activity
dishes
confirm
religion
##belik
results
##elein
fashioned
assuming
options
bunny
kubelik
voices
wandering
surgeon
cobb
waters
strictly
symbol
cocktail
tragedy
cemetery
kringelein
lincoln
utah
deborah
anniversary
bent
bishop
cattle
dame
dway
dict
econ
egy
fuss
hunch
jed
jere
kong
kling
kings
kenny
lame
pose
pals
rico
tale
voy
wyn
wander
##rad
##rome
##rup
##do
##foot
##pers
##power
##wire
##bal
##inity
##esc
##aron
##itated
##rels
heav
rey
rein
reve
weigh
shith
##alf
stalk
outl
outer
##rial
##ryl
##eller
##pps
deer
alt
##artz
##ained
##ulated
sequ
select
##endid
##ums
maya
clothing
fuckers
engin
workers
needn
maranz
gran
waves
crus
crimes
##daya
playin
phones
traum
##shire
resent
paras
worlds
recent
meetings
division
cheated
reads
accused
payment
##what
eats
highest
relatives
franklin
passage
bits
airline
corp
papa
eleph
grandpa
dropping
winner
propose
proposition
beloved
tested
visiting
landing
radar
absurd
##onym
operate
vienna
pengu
##visor
raymond
brick
busting
doubts
discussed
romance
peaceful
threaten
sailing
bandit
constit
sharks
cameras
ideal
hostage
receive
creek
harmless
generally
laser
santos
##leton
brandon
graduate
rumor
scientific
goddammit
patterns
cuba
chapter
bernie
stinks
lecter
slightly
friedman
nazis
betrayed
invented
morpheus
pacific
traveling
deposit
suzie
laundry
administ
crystal
furniture
##osphere
curiosity
dwayne
egypt
engines
cried
dates
epps
fits
ferg
gy
gor
jay
jelly
mong
martha
nich
nuth
ripper
vom
yacht
##rating
##dale
##fl
##pes
##lan
##hand
##zed
toe
tool
toler
whit
##arian
##itate
##itable
##aser
rear
haunt
##store
##imore
##imeter
sting
stir
liver
yourselves
sof
sock
##inky
upper
##ici
##ested
manif
lovers
plague
sel
seb
guid
arc
carol
lev
margar
adele
greater
##ogs
morgan
string
charity
glob
##pense
cleared
tennis
edgar
presume
thirsty
halfway
possess
steam
blackmail
incon
election
##ieth
samuel
subst
raising
bela
##umbo
studied
hairy
distress
smaller
fools
fooled
explained
merle
operator
purse
penn
floating
treves
severe
kicking
juno
motion
torped
limo
cooking
folk
requires
sucked
suspected
obsessed
surviv
mexican
arrive
randy
laszlo
##anoff
dragon
mallory
logical
carpet
magnific
trailer
temperature
barton
spoiled
certific
deaf
struggle
producer
engagement
tremend
independent
alcohol
paradise
interfere
satellite
scheme
yessir
valentine
gabriel
werewolf
baltimore
ambulance
maranzano
bam
biz
cord
cunt
dub
dyle
fid
fiction
faint
ganz
kyle
lance
lane
lugg
luthor
mi
nit
pile
rm
rop
rode
rita
vaugh
wagon
##ridge
##eu
##now
##pting
##gage
##mouth
##bow
##va
##aney
tox
##order
##orters
##ete
##otta
bears
dolor
##leaf
##stick
shine
##kel
donald
knox
stacy
livin
##cho
canada
neo
neph
sheet
howdy
worries
##iled
orph
locks
plumb
ohio
guilt
comic
##aste
##astian
meanwhile
spill
##ummy
bren
brady
mayo
tram
##osexual
callin
enquir
enforce
unex
mock
molly
mulder
bub
grat
##ueger
puttin
thrill
swamp
perp
monsters
missiles
flip
disks
lawn
interfer
##ansky
parr
insp
##acon
polish
walker
previous
surve
meters
highness
skirt
sketch
questioning
colors
##encer
madman
sorta
ridd
forgiven
retard
retrie
sentiment
##oleon
concl
annoy
muscle
officially
impact
landl
##cover
costume
roseb
judgment
protected
entered
creative
prisoners
jewels
damaged
turk
crossing
197
##oids
boxes
bleed
violet
violation
production
cookie
electron
photos
##guing
recognized
rubber
wheels
searching
intellect
shocked
creeps
nigga
necessarily
magazines
rumors
gamble
wilson
krueger
engineering
matth
matrix
bait
napoleon
ronnie
porters
montana
##nolds
negotiate
puppet
explosion
rehears
prospect
intentions
captured
houston
##natural
atmosphere
schwartz
patrol
wizard
reynolds
sebastian
dolores
80
bike
cly
cities
eag
fats
fisher
ich
jeep
mim
mol
mush
mookie
od
ooh
pitts
rage
riot
tack
vent
wins
wrap
##diction
##lot
##lers
##tw
##wy
##gate
##uard
##hill
##mony
##bag
thea
##anor
tops
whip
##orable
##aroo
reggie
dock
##aling
##imm
donnie
wasted
noon
##ira
cany
##illance
butcher
chan
chess
##rack
orbit
##ulting
seym
exter
exhib
compens
backs
backwards
brush
amber
tramp
leland
lemon
envy
que
##agers
leak
crown
smack
smiling
boyd
flood
##cia
handy
##attered
strate
momma
##pected
slam
apples
sixth
gloves
aha
compound
capacity
eduard
ape
questioned
passes
behalf
milo
madison
humans
consum
##ials
starving
speaks
answering
sorts
bodyguard
collea
drops
filed
samples
maggie
refused
reflect
causing
reporters
davis
covers
##zzle
destruction
treaty
involve
publicity
##grim
risks
screwing
violin
possibilities
circus
circuit
westley
homosexual
splendid
apology
require
sucking
williamson
wilder
angels
hooked
suffered
physics
physically
survived
gifts
autograph
feeding
melanie
fantas
balance
matches
effective
scares
claims
include
excellency
lifted
nailed
hawai
borrowed
bonds
broadcast
commissioner
engineer
stewart
steward
associate
injured
reverse
entertainment
assumed
embassy
insulted
naive
##keeper
convenient
sacrifice
ceremony
basketball
gesture
announce
philosophy
democr
surrounded
sabot
juris
manhattan
conspiracy
symptoms
succeed
jedi
wynant
fergus
unexpected
matthew
seymour
75
ax
ari
dur
fame
ivy
jody
kip
len
lime
mouse
nag
penc
ral
rats
ss
sic
sins
##nic
##aire
##lante
##cott
##kman
##got
##uing
##xim
##hole
##bes
thread
whoo
whale
anonym
ingen
reass
measure
hav
##cktor
shed
shap
##keys
lila
##chester
##anta
withdra
asian
worship
coma
comedy
spagh
conqu
##umber
brun
carbon
lecktor
queer
muff
marie
helpful
##angle
probation
##izer
monica
acid
acce
actors
phrase
##anks
display
guessed
mothers
serving
laz
parent
inspir
beings
sloan
contrib
commod
brew
walkin
compass
deserved
chron
drives
##aughters
christine
excit
exclusive
relations
award
colony
murphy
##encing
india
##cca
strain
defensive
curs
painted
##lined
proposed
natalie
musical
transl
owen
##hhh
coffin
merc
operating
fairly
wallace
repair
sunny
attacks
honored
smelled
strikes
borg
practicing
histor
deeper
deeply
##box
tort
detectives
formal
documents
silent
investigating
investigator
heroin
praying
##ography
francs
wheeler
auto
batman
pilgrim
fingerprints
climbing
contracts
customs
stanwy
chairman
venkman
jacob
arrangement
yeh
corru
extreme
analysis
laplante
knights
primitive
typical
holland
transferred
dentist
liquid
registered
flattered
disturbance
literally
narciss
dudley
mckenna
mantan
privilege
wisdom
coordinates
multip
lewis
dramatic
ransom
vivian
horizon
diplom
expedition
magnificent
nephew
perpet
surveillance
clyde
jurisdiction
spaghetti
ara
cass
ding
dow
dive
daughters
erica
fu
foul
gin
gym
hip
hans
kl
kal
lest
maker
pod
pope
porter
rit
rio
sut
sust
sout
sittin
tire
vod
vouch
woo
wounds
##rd
##rett
##rors
##aver
##iere
##iance
##far
##pot
##point
##list
##lah
##coming
##wald
##uf
##bler
##zil
##ís
##ít
##erie
towards
tools
inquir
hald
shh
shack
shave
##aly
##char
##chair
nost
##amus
##tery
chet
##icip
worn
frust
alike
##usions
##arte
safer
plants
selina
gull
##ola
##abelle
bron
carr
leather
pecul
quad
unst
bloom
blaming
scoop
##the
undress
daylight
undercover
writes
joel
waits
##izz
smugg
##atched
minnes
##iley
flame
acts
actions
understands
players
stayin
##eyer
nicely
##ocks
parlor
slice
slap
content
##rove
glen
compared
desper
desmond
schools
sleepy
resting
promises
ski
skill
infant
##ivity
##encies
delicious
stepped
sends
region
artagn
arrog
bobo
subway
raoul
annette
straighten
addison
kingdom
centuries
nickel
marked
##zech
penis
tread
demons
illusion
creator
kicks
knocking
returns
communication
198
carlos
islands
##rington
hyster
suggested
russians
obsession
frightening
expand
taransky
july
jammed
marshal
chaos
crawl
description
gambling
toothp
chopped
cosm
mortal
josephine
cathy
cowboys
ronald
choir
lecture
slightest
stevens
sophie
institute
batteries
ribbon
atlantic
##ulsive
ignorant
tube
assassin
##osaurs
razor
bracelet
cocksucker
consequences
gravity
syndrome
##birds
episode
aggressive
pudding
warehouse
nuthin
vomit
tremendous
enforcement
canyon
stanwyk
vodka
peculiar
minnesota
artagnan
400
ack
bapt
cater
caut
czech
dix
daw
dante
fettes
fulf
ike
jord
jaw
kor
lamp
mast
pg
posed
puke
sis
sank
vib
vern
wack
wired
wires
wipe
yon
ze
##elf
##not
##fly
##oons
##pol
##uu
##uum
##mark
##bell
##bac
##äng
##anes
##llie
##armed
inna
##uted
heel
reun
shred
##see
##aline
##alog
forms
stations
##ighty
##aman
##antine
##urb
soil
outs
##opath
uptown
##icop
##rah
##estic
seein
alab
sax
sauce
##ainted
placed
guild
expense
##olve
willow
spons
spotted
spencer
##umes
carn
amate
leopard
happily
oklah
quaid
mug
marvin
scumb
hull
underne
helicop
gru
putter
oldest
swan
sworn
swana
hockey
mah
maurice
ministry
perm
fax
phoned
stubb
##mann
schol
bold
hardware
##nerable
breed
harris
capit
drivin
gib
childhood
countries
sets
genetic
differently
airpl
hunter
##negan
dinosaurs
bene
fireman
almighty
snakes
##ippi
arrow
dragged
raid
classic
bitches
straightened
medication
error
addition
psychotic
psychological
informed
squid
flynn
maxie
fixing
blowing
trevor
feather
##ificant
illness
chickens
iris
rocky
193
bombs
carla
silk
discussing
halluc
temple
girlfriends
directions
contacted
furtw
souls
programmed
heavens
tracking
broom
specim
exposed
examined
slee
melt
berke
immediate
grabbed
scottie
nicer
nicole
buffy
mutual
punished
stephanie
latin
improve
thorwald
corporation
debate
tables
electrical
resistance
kathryn
drowned
patchett
battery
chrissakes
sandwiches
constantly
utter
whistle
##stitute
altered
industry
pentagon
supre
orchest
wiped
neutral
dynamite
exhausted
sincere
anchor
kristen
kendall
sunset
voyage
shithead
survivors
rosebud
eagle
pittsburgh
ralph
excitement
ritual
vernon
##ängler
oklahoma
scumbag
underneath
furtwängler
bian
bunk
bio
bai
dre
dyl
etern
fans
gino
hart
hong
kra
kel
lid
linger
mount
niece
ranger
rational
sane
tenth
vicious
waking
zack
##rust
##rus
##face
##function
##oir
##pack
##cles
##corn
##gir
##uana
##meyer
##bone
##ji
##eries
##inal
##atically
##onia
whores
##oting
##ito
##omet
##reh
inh
##vember
hector
bean
beans
weep
habits
##state
lilly
november
##illac
##urate
sull
##icans
##icates
##andal
##gel
##istics
##ulty
ark
##abet
backup
letty
spying
##umph
branch
mayfield
clues
happier
needle
overr
overnight
unable
intense
coin
coco
##agen
scram
##thin
fires
remote
##uded
##udge
adorable
swann
smash
maf
##onda
##quet
craft
tomb
##pret
owners
strand
schul
prett
proves
slide
charl
meets
diagn
chef
##phis
watches
harass
tribe
triumph
prey
compare
capture
##ancing
metaph
presents
eastern
eatin
breakdown
darryl
reliable
possessed
##ugos
conflict
brazil
indians
starship
collins
sniff
snuff
burst
burger
calvin
fellows
##ippers
peters
winds
curtain
memphis
cleaner
proposal
greedy
haircut
safely
medal
leaders
bucket
buckaroo
contrary
keaton
fooling
psychology
entry
popcorn
merch
toto
imagined
humanity
teachers
causes
purch
covering
published
penet
connie
absolute
advanced
##ova
quietly
pissing
195
cecile
opposed
rolling
##teenth
cooked
drawer
approve
levels
smoked
shares
expose
crashed
##aude
portra
dancer
niggers
##itzer
satisfaction
sweater
requested
sources
employee
austrian
released
kirsty
immort
poisoned
disappointment
depressing
referring
separated
chemistry
album
psychiatric
printed
powell
fiend
savings
lawsuit
whadda
whaddya
primary
types
dignity
seduce
competition
priority
##ijuana
stamps
whacked
regarding
demonst
cadillac
sheldon
terminal
candidate
morphine
infected
crushed
initi
hammer
rothstein
ultimate
remarkable
rudy
spectac
wealth
dodge
tattoo
breasts
rangers
dismiss
achieve
cindy
koessler
penguin
channing
hawaii
withdraw
jordan
reunion
alabama
dylan
28
31
aaa
bass
bisc
bingo
cough
dread
ere
eug
foss
gau
hind
iv
lin
lys
lama
lined
ole
pend
pond
rice
rounds
session
tide
tib
vag
vault
##eous
##nick
##fish
##oly
##life
##cie
##kward
##uk
##uctor
##har
##mith
##burn
thie
##ourage
##atown
##atics
theories
##onna
tobac
##orse
##eness
ank
##oty
##otics
inches
reilly
dol
##idor
##stock
goat
shuff
##ched
myers
##uster
##urning
sod
abd
allerg
aspir
##opp
##icorn
##unning
alas
maneu
goods
seed
##olves
twins
offended
amusing
click
ens
needing
drill
killin
##elope
intact
cocon
huey
underest
##ewell
grounds
root
wax
poly
pointing
kindness
crop
crunch
cramp
smashed
hollow
mini
minimum
flirt
remembering
disgu
##shine
strings
resour
insight
proved
boil
slack
contra
attached
##iana
harsh
dealers
deserves
cape
tense
farewell
shovel
picks
copies
skills
eighth
beds
awkward
##aza
bites
bravo
indul
corps
bench
deposition
freeway
messy
robber
hush
calcul
artie
curt
beaten
submit
annabelle
distinct
visual
imply
balloon
ernie
sells
keith
##hhhh
hotels
privacy
treas
sticking
bosses
larger
birdie
irre
convict
rocket
denied
##cript
ringing
woody
visitors
fatal
frederick
limited
cookies
equal
##ruder
programs
suggesting
heroes
fields
mirrors
specif
judgement
tricked
wheelchair
lamar
begun
malfunction
grief
bearing
organic
danced
civilian
authorities
assistance
spiritual
banana
boost
laurie
hamburger
argon
austral
domin
hillyer
sneaking
corresp
encoun
encoura
reckless
servant
disgrace
activities
chains
accomp
hollis
briefcase
thorough
facing
facility
dummy
porch
passionate
nuns
faggot
favors
automatic
lipstick
accomplish
andrews
relieved
breeze
beckett
fortunate
cheek
lungs
volunte
##onnect
molecular
insect
chimera
compromise
navig
brutal
constitution
inconven
luggage
anonymous
southern
berkeley
schulz
tobacco
correspond
bou
bin
codes
dart
ein
eld
ego
eager
gast
gek
gaz
hence
iren
keen
lux
nash
naught
roo
tang
tina
vague
venture
yer
##dan
##ded
##cour
##grove
##mates
##zona
##erous
##inations
##onies
toes
##ington
##orate
##esome
##aration
##iser
##etically
##oto
indy
heels
becker
meek
##iding
goss
##cken
donna
stair
stens
stores
##verted
##amas
allen
outrage
##ria
##riger
gotham
chips
sul
prote
##icidal
##elli
##essions
welles
alib
manip
manchester
loom
##osaur
guitar
##ober
##akers
spank
bru
offers
ambr
clip
overl
overwh
overhe
quant
quitting
##employ
unemploy
cozy
scent
scum
##issions
##thorn
##ffe
hugh
heller
gren
grows
roast
helpless
##nings
remar
elena
thrilled
probe
cruc
coup
advert
swine
fla
theirs
remembers
travis
tracy
tragic
minded
mora
lazy
slick
readings
accent
accurate
triple
trips
drift
cuts
mete
pointed
excuses
standards
decides
breaker
darn
evolution
towns
gracious
simpl
passenger
confusing
columb
behave
closely
blacks
diner
dining
benny
depart
follows
##okes
ridge
riddle
returning
define
element
feller
regan
##ippin
touches
cured
winston
legally
filth
drapes
reform
refriger
visa
ballet
transmit
landed
absence
catches
merger
superher
affirm
float
cannon
feature
respectable
##balls
solar
##ikes
hopes
##boat
194
vanished
romul
belonged
modest
sanct
connections
investigate
contacts
equipped
##etched
suspects
photographer
sufficient
anticip
farmers
label
terrance
prayers
audrey
frighten
smokes
examine
autop
rented
towler
buzzing
queens
cockro
technically
titan
identified
interviews
pockets
oliver
graduated
represents
hamp
planted
celebration
depression
##backs
bailey
cubans
fiance
rhy
dispatch
concentration
various
##aaaaaaaa
tanks
panties
therapist
puppy
hobby
abandon
comrades
qualified
certified
bertrand
caviar
kentucky
experienced
thumbs
efforts
scenar
instincts
alternative
vinci
legitimate
cripple
coroner
receipt
integrity
interrogation
margaret
bizar
vaughan
orphan
conclusion
arizona
haldeman
helicopter
gruber
beneath
mafia
tibet
gekko
gossip
overwhel
affirmative
300
70
aa
cin
ced
cod
cows
dap
echo
fare
gates
hound
hats
jas
kob
kitty
lant
lod
mace
maude
nay
nuke
oth
peep
pms
pension
ras
rend
sway
sang
satch
tuck
tum
ties
tender
vow
vader
##roth
##dog
##ih
##fight
##fol
##fire
##tight
##wall
##west
##mart
##mund
##bra
##zak
thus
##eria
##inite
##inging
##lling
##oring
##etor
##asis
##utt
anderson
rebels
meals
haf
stare
streak
lill
liable
lions
##cel
canad
##urre
##ctions
justin
chairs
chased
##iel
##rav
somewhat
manuf
orson
##ulars
##ifies
arguing
##obot
spite
spoon
brass
twent
amend
ambit
ages
claws
lech
enzo
afric
##ember
unicorn
blessed
scoo
godfather
helms
roach
emil
leavin
kindly
listed
realistic
flav
disag
disres
household
resume
parade
appet
##hne
##phin
attic
fold
finance
harvey
dealt
##avis
drif
barrel
eddy
presum
drinkin
easter
booked
eval
evac
copper
grain
awesome
confusion
confront
lighter
lighten
lightning
##rete
explore
consult
steering
income
depth
##enses
##apping
admitted
retreat
patron
petty
subpo
memo
horny
imperson
medium
transm
errand
surprises
owl
explains
freaked
images
operational
cafe
micheal
superst
penit
jefferson
palmer
pressing
brig
destroying
communicate
199
cigars
visitor
circle
rolls
rolled
##ugged
filling
hyd
castor
philip
cellar
smokey
electro
massey
julian
sensors
creed
blocked
vacuum
depending
cameron
pilots
therm
sara
faithful
cracked
civilized
massive
ambition
precaut
scaring
identity
originally
motherfuckers
satisfy
suspended
graduation
lauren
galvin
roses
freaks
discovery
scotland
militia
reactor
talented
european
buffal
purely
cosgrove
mortgage
cabinet
pillow
kidnapping
##ylum
commitment
dumper
lesb
internet
barnett
dimension
december
gabe
despite
fraud
porno
anxiety
chinatown
dizzy
predict
hoover
virtue
picnic
dedicated
kilos
divine
wigand
methods
hustle
negroes
shells
patriot
slaughtered
pooch
greetings
wrapped
isolated
controlled
writers
yankee
klingon
##rupting
corpse
administration
arcade
certificate
enquirer
sentimental
stewardess
sabotage
pencil
unstable
acknow
airplane
supreme
orchestra
bianca
portrait
eugene
thieves
encounter
ambrose
moraes
meteor
hampshire
daphne
lantern
manufact
disrespect
26
99
ais
aaron
cum
cort
dary
dork
eri
fug
hend
jig
jag
jade
kry
mour
mature
nud
null
py
pulse
ratt
rene
soo
tel
tiss
wich
yield
##rin
##rent
##rest
##ns
##nia
##fus
##fman
##kers
##gal
##gia
##uest
##uations
##hard
##mes
##mers
##mine
##yy
##oups
##inter
##atures
##anity
todd
toys
toky
##llor
whew
##oran
##edge
##arine
rebe
webb
haz
##lection
shan
shang
shared
##immer
donut
knives
stim
stable
##child
##ads
nooo
noises
##eem
##illes
butler
allison
allows
asia
asylum
shep
chum
chek
chump
atomic
##icating
##icians
ali
alto
##ilated
telly
loaf
user
sept
##osh
##osure
##ifton
conk
amen
amour
amnes
trous
clifton
overd
##emann
unw
unple
marion
maroon
marla
scrap
hug
lovey
rogers
joker
##active
believing
emma
elimin
throws
##udy
crummy
smear
maze
homeless
perimeter
monkeys
phant
deadly
traps
craz
fathers
housew
##shop
interrupting
residence
parano
insom
slay
slob
slapped
hardest
breach
##mmm
##onsider
harrington
chrom
barren
excess
highland
##ibilities
setup
gene
heartbeat
##erton
signor
##ivan
explode
indo
shootin
install
factor
perfume
expectations
benn
disconnect
watergate
messing
burt
burg
elements
murderers
pains
painful
natives
##umbled
refuses
extension
classified
distant
testing
reporting
dicks
oui
owed
ruining
psychologist
merlin
condem
martins
gently
penelope
carryin
sunlight
sunshine
destruct
valiant
courtroom
paperwork
irres
irrit
peach
sherman
buster
footage
acres
torch
daisy
lowell
rising
fortress
ladder
ninth
verd
disappearance
macfar
continent
masters
hookers
crashes
towel
january
symph
tearing
pageant
performed
speeches
weathers
magician
sweating
switched
kaye
nails
complaints
bonus
employees
domino
domestic
horsesh
rabbits
pregnancy
immig
approaching
funds
logic
crowded
perspect
management
association
spells
hypoth
rarely
mathem
pierre
entertaining
defendant
journalist
leslie
lizard
electricity
kathy
katharine
counterfe
spooky
swinging
replaced
creepy
struggling
infection
rehab
gregory
experiences
picard
##weight
procedures
atlanta
occupied
lynette
declare
traditional
debts
wealthy
burglary
iraqis
tuttle
companies
delighted
retirement
alpha
toddy
snoopy
anesthes
grunemann
schmuck
instrument
suspicion
pigeons
goofy
forbidden
defeat
guinea
elephant
nichol
manifest
brenner
strategy
fantasies
sicily
lestat
dawson
eternity
curtis
naughty
autopsy
bizarre
african
subpoena
penitent
buffalo
tokyo
rebecca
shangri
chekov
amnesia
unpleasant
macfarlane
34
42
800
90
bore
bain
bate
baked
bien
cork
cuff
dot
dell
dess
dated
ec
era
fink
fist
fade
fian
fuse
fract
fries
gt
gw
gulf
hick
hiring
kast
kau
lend
lud
lones
loos
lugos
mild
maps
pam
pus
pul
pub
pork
penth
rash
tah
tapped
veter
yak
##rod
##rence
##rise
##eger
##dor
##fall
##sky
##oen
##like
##lene
##cet
##card
##giving
##hy
##zes
##jah
thunder
##erd
##erate
##atra
##orc
##enstein
anton
##isco
##omed
##utes
beavis
wee
doo
##stood
##step
shag
shining
##sex
##alt
donny
sty
stoned
noir
##anted
##ooke
##urer
neural
sox
abort
abortion
##ctic
##rich
pritch
anyways
anythin
veins
##ppie
##rain
##raph
wholes
deed
herbert
seeking
saints
manual
loans
##igo
##isticated
##ulpt
semin
exorc
##olo
##olet
##abouts
##obe
##obile
bras
brody
brok
brenda
twelf
##aparte
leia
enth
enlight
quince
##emm
mollie
mueller
killaine
##elway
marine
maria
margie
intri
scal
scandal
sculpt
wrist
grid
groups
jockey
longest
mustang
poster
keepin
partial
mines
pervert
understudy
flush
##intend
##ogen
##ques
guessing
tomato
headaches
laval
interior
roommate
hardy
johns
sixties
watchin
finn
finch
payroll
compar
compos
compreh
edmund
damnit
counted
decency
promoted
graves
obl
jeopard
##erts
##retion
importance
discreet
discretion
buys
sickness
saloon
arts
curve
concrete
millionaire
redi
dragging
recording
annual
studies
refr
profits
hairs
radiator
jerome
population
freaking
conductor
maxwell
michigan
supernatural
quicker
costello
consideration
burnt
demol
roads
shortly
bribe
conviction
convicted
damone
chiefs
norville
advised
neglig
denver
##ovan
upsetting
responsibilities
armor
wooden
directed
continues
castro
obsc
survival
politician
innoc
travels
traveled
buttons
weekends
orient
fingerna
terrified
lyin
settlement
scrub
identification
claimed
germany
flea
femin
volume
directors
cycl
bonaparte
employed
described
cornwall
celebrity
corridor
graveyard
executed
punishment
tuna
mobile
reference
vulnerable
junkie
unlock
maiden
fabric
scheduled
stabil
jacques
avoiding
underwater
occasionally
acquaint
##ooter
deceased
mackelway
bounty
shaft
vincen
##check
determine
pursue
motorcy
micr
containment
cruise
accomplished
narcotics
transportation
dudes
gathering
misunderstanding
misunderstood
bourne
cloak
alcoholic
laboratory
northern
charts
chemicals
friggin
adults
dwight
vicki
heights
glorious
increase
alphabet
nanobot
october
vigo
permanently
adopted
persuade
jeremy
##iciency
guidance
levi
global
torpedo
retrieval
landlord
rehearsal
compassion
cursed
desperately
treadstone
sponsor
scholar
lingerie
allergic
alibi
loomis
overlook
appetite
erik
tissue
wichita
september
conklin
trousers
perspective
bateman
dessert
kastle
lugosi
pritchett
twelfth
enthus
cornwallis
32
38
41
48
auth
aster
barth
banged
baker
bacon
coy
dere
dash
dmit
eject
fest
hink
ive
jar
lle
lust
miz
oo
ost
pine
pne
pens
sessions
tee
vood
wo
wakes
zuz
##ae
##ait
##fr
##fuss
##piece
##lar
##cake
##woman
##mia
##zon
##jo
##jud
##11
thigh
##oust
theor
theft
##oning
##anas
##anian
##inge
whe
##arms
##omer
##ometer
##utter
whatso
beard
beers
begged
##leine
goeb
shin
shipping
##imo
knots
lil
##chez
nolan
##omew
##amins
sober
alleg
##river
chi
chow
choo
chalk
choke
upside
##elled
wells
##user
mankind
teller
ohh
##oli
##olomew
backed
backyard
spats
theme
brock
mayh
caro
carri
careless
amanda
##bec
peck
##emois
une
unpr
unne
movin
blink
blake
blair
marx
marlon
scored
##issippi
lovebirds
emer
embe
elij
##uding
##fton
missile
mississippi
fazel
handles
##orde
madeleine
morris
serves
strung
interpret
resort
resem
parry
proven
reconsider
divers
funn
cheers
hurric
persons
glimp
accuse
clevel
ahm
prel
invention
caps
tension
##etto
stuffed
barney
edition
prescott
sleeps
restrict
christy
casey
bookstore
##gins
wished
braces
indicate
mademois
conserv
huntin
stepping
chancellor
dinosaur
incomp
##oked
salvy
burden
calc
eleanor
##ippe
articles
##apsed
stupidity
recorded
subtle
richest
extract
experts
lando
landon
contrad
nearest
loses
losers
protest
marker
controls
penal
##zzo
attacking
##bridge
basil
ordin
creating
respected
reaches
##iki
peaches
motiv
sandro
welsh
ringo
devices
devoted
carlton
risky
mainfr
digest
digital
campus
greenleaf
cept
circulation
sanchez
disappearing
horseman
estimate
preparing
cellular
elected
idiots
tracked
percentage
approved
approxim
yelled
examination
##ographic
doris
relationships
panick
existed
##ropol
sarge
opinions
massach
projects
characters
identical
purposes
opportunities
cycle
mutant
villain
mentally
shirts
pearls
disposal
kidnap
spreading
stabbed
clayton
dental
principle
materials
shhhh
pirates
insisted
incidentally
##igel
sophisticated
bounce
phillippe
frag
tossed
channels
vehicles
recovered
affection
caval
etc
##rogen
lombardo
##regon
relief
rexroth
dyin
fletcher
gloria
obliged
##irsch
crippled
detonation
greek
thrusters
potatoes
##borne
haunted
gratitude
acceler
undressed
arrogant
hysterical
amateur
stubborn
gibson
sullivan
lyssa
shuffle
maneuver
disguise
einstein
rendez
hafta
lechter
aisle
krypton
##hardt
hazard
phantom
fianc
kaufman
lonesome
penthouse
composer
bartholomew
dmitri
pneum
voodoo
zuzu
whatsoever
goebbels
unnecess
elijah
fazeli
hurricane
glimpse
mademoiselle
aah
auction
bah
bats
bryn
cz
cate
clem
capp
dorm
duct
eter
faking
fier
fountain
hast
hana
iced
kinc
kron
lump
loop
mt
nations
nigel
oven
ols
panc
peak
rena
sings
tires
ugh
va
vanc
vital
voc
wag
wud
zomb
zira
##rator
##ext
##name
##names
##nik
##iors
##fied
##sp
##pons
##post
##cony
##wely
##mel
##master
##bro
##break
##vous
##ouver
##erman
##inent
##inery
whiz
##org
##orty
##enmeyer
##isance
##eton
##itan
inapp
inex
##utch
whati
beware
welf
haird
##keep
stad
stag
stakes
##cht
##chief
##adays
##amis
##ooper
soze
ally
##oded
sump
##opia
uptight
##icit
##icut
vel
worf
frog
frost
nowadays
alg
lookit
saus
plaza
##ulator
sefton
arson
##endel
spots
conway
convert
##umann
brooke
twin
amuse
ammo
tray
trim
trop
enh
enlist
pepper
quinc
drool
drama
betsy
bluest
##elance
##elius
scre
##issy
##thouse
happenin
wretched
sorrow
gro
grendel
roots
wald
finder
empt
##asses
kidney
crumb
croc
adren
advisor
swiss
hoff
mint
minim
uhm
lotte
courthouse
misses
missus
flop
assess
##inton
suppl
phoen
traitor
sera
lax
##shed
##print
stroll
intercept
schiz
insign
##acing
##igned
contempt
dieter
turner
##mmmm
readers
clement
harvest
compartment
##avitz
farms
barber
senor
endanger
prescription
childs
childish
eyed
figger
darrell
supposedly
hopefully
complications
compliments
infer
franky
frankenstein
sylv
deaths
##ontane
delicate
cora
discoura
##oking
alma
##ologists
retain
burgel
regiment
regulations
liking
rae
proposing
grease
distrib
impat
transit
##tenance
radical
psychopath
jerks
felson
squat
##rams
prototy
freelance
vibe
##coat
paula
pauline
martial
dresses
mouths
kisses
fixin
##visions
earthqu
musician
valet
courtesy
##boro
growth
solo
##aaa
sherry
torrance
appreciation
sadd
violated
ceiling
claus
circles
gerald
roller
models
connecticut
apologies
joining
threats
suggestions
grounded
bowler
ants
senses
loading
rains
moonlight
cups
searched
organized
supportive
attraction
shocking
balcony
professionals
randall
dupl
##lights
marshall
puzzle
lindenmeyer
rapid
interviewed
virgins
brandy
olive
urge
galax
rosa
venge
provided
mccord
hamilton
disturbing
ripe
gambler
broadway
corners
cornelius
witches
chopper
encourage
cuban
pumping
##uzzy
magnetic
150
associates
recommended
guaranteed
whaddaya
injury
typew
hypoc
jonah
panthers
banging
cynical
challeng
despise
250
shadows
clouds
benefits
drowning
chewie
kiddo
vietnames
pursuit
candles
literature
teenager
##regard
initials
horns
##worthy
assassination
bourbon
crooked
oooh
dwar
companion
jaeger
paso
dutch
duties
nuisance
nyah
rusty
whispering
maureen
permanent
lonnegan
adopt
nasa
bundy
helmet
grocery
heavily
sofa
toxic
forgiveness
muffin
inspiration
corrupt
multiple
dixie
##alogue
specimen
underestimate
contractor
australia
gaston
meeks
flaemm
scenario
lillian
canadian
lesbian
altogether
paranoia
bennett
fingernails
acquaintance
llewely
wheat
cleveland
mainframe
approximately
rendezvous
unnecessary
eternal
kincaid
vancouver
inappropriate
welfare
quincy
bluestar
phoenix
vietnamese
llewelyn
29
44
ak
bir
bic
cau
cunning
dine
fib
fert
fetch
fuzzy
gown
horm
hating
hicks
ils
kinky
ling
lag
lund
moth
obe
ounce
pace
rave
ripping
sou
tid
tch
vows
zavitz
##rr
##rine
##rane
##rina
##iology
##front
##sis
##och
##overs
##cal
##gus
##uy
##uating
##hop
##bat
##bby
##yll
##ouri
##onic
toon
##lla
##lled
##orp
##oral
##orous
##edict
##owing
##isk
##etics
##itter
##itage
##itary
thatcher
##uties
rek
reel
revel
repress
revers
wease
meyer
hauser
shir
##secker
##iman
donít
donovan
stool
stead
##chev
notion
notions
##ithium
##ams
##ammit
##enton
##entially
candle
##illery
nex
nev
##inks
chad
chili
##icity
##racks
##eston
worsh
worms
fridge
##acks
herb
righteous
mansion
##gey
loath
logan
##ista
whereas
##olt
##olph
arse
aramis
spear
spice
spaced
conver
conrad
##ours
##umin
carson
trump
aged
leff
enid
enri
makeup
overse
unload
moore
blunt
hass
hash
marcia
intimate
bugging
coha
scound
scars
scope
lovejoy
helena
grub
groom
waving
remo
##anges
leap
leagues
##assing
##tage
##perd
adolf
adrian
hog
mining
minus
uhura
monstr
missouri
assured
phase
phoney
pharm
disrupt
##quire
crabt
crabs
##eeney
##redict
mindless
headlines
resident
resurre
schumann
prostitute
boz
boards
##arez
slit
slaves
attending
accus
accoun
accusing
foster
finer
tease
text
thanksgiving
foundation
payin
prejud
tennes
##etts
situations
pawn
differences
barker
barracks
endless
sounding
pickin
metropol
restore
prices
darned
evolved
skipped
skye
millie
speck
graff
##otto
passeng
cola
colomb
signals
##ivable
indicates
##iera
hunger
hunsecker
blooded
dela
geoff
steed
starve
starks
##insk
firemen
depri
##ensity
admission
messenger
ridin
regula
artoo
touchy
windham
magua
louder
rafe
midget
perfection
classy
gladly
experiments
transpor
completed
addict
specialty
rufus
##ervo
absent
accidents
tyr
supervisor
purity
publishing
publisher
sunrise
umb
reaching
irs
tougher
turf
denying
sandra
closes
torment
layin
cardiac
spacecraft
bottles
carlotta
maine
mainland
maintenance
teams
saddle
geek
cecil
posters
accountant
witnessed
estim
particles
delivering
angelo
quarantine
heroic
masks
idiotic
physician
difficulty
approval
observe
pushy
##works
holiness
potter
sharing
pinch
pinned
talby
panel
conditioning
theres
theresa
climbed
organize
deserted
receiving
archer
performing
authorized
keyser
ambush
lucas
subjects
grades
rosen
requests
angie
hawkins
ethics
wilh
accessory
broads
gallery
whisky
positively
180
battlefield
punish
representing
representation
representative
snapped
cosmo
vallens
pumpkin
dishon
terrorist
terrorism
stinking
trading
hypnot
uniforms
holler
expertise
reno
rennie
jonathan
journalism
tanker
wesley
wendell
panther
occasional
products
1000
optim
mattress
bartender
recovery
application
explosives
oscar
conducted
katrina
microw
gregor
experiencing
humiliated
ignorance
misunderstand
farther
mechanical
scenes
independence
sinking
declared
fortunately
sympathy
commercials
licked
industrial
salvage
bulj
tamper
unpredict
cuervo
unlikely
dillon
georgia
vegetable
frequency
hutton
assembly
discipline
joanne
nasal
##donald
instruments
suspicions
inherit
observation
trauma
substant
rmph
ropes
interference
electronic
colleagues
havana
narcissus
dowd
bronx
yonder
capitol
utterly
implying
specifically
volunteered
stensland
superhero
cedar
##folk
twentieth
amendment
ambitious
scooby
disagree
mourning
barrenger
symphony
broker
comparison
refresh
panicked
massachus
fiancé
pneumonia
categ
fierce
kronos
olsen
whatiya
hairdress
stadium
ilsa
weasel
lefferts
cohaagen
crabtree
tennessee
passengers
27
47
4th
85
ale
aub
bot
bim
bib
bates
bik
bij
cush
clemen
cbs
dors
dwell
eater
ecc
gil
gem
gide
hirsch
jets
kre
kore
lena
munch
nup
ooooo
rul
riz
ramp
rasc
sque
sissy
tux
vest
vain
votes
wl
wan
wilt
wiring
##rill
##rations
##riter
##rari
##nge
##nels
##ii
##iate
##iary
##fty
##ski
##oven
##occ
##lay
##cuff
##tes
##tiff
##wash
##weed
##gans
##uge
##mb
##bin
##ban
##bok
##bility
##zi
##10
##eres
##inck
##inished
##atin
ana
##edith
itch
##etical
##otine
##itations
##itals
##asm
heine
heming
##ereo
rely
rebel
beeth
##levant
##iders
##idote
##idency
golly
shade
shorter
##ala
##ims
stoo
stif
stitch
stashed
stella
stereo
lia
##chess
##allel
##lyss
neb
nels
sollo
abbe
outdo
gotcha
##eable
##oper
debi
##ilation
sayer
##usinsk
mans
pla
plank
plato
##igod
##iggins
##ifty
##ifully
gump
como
comed
spain
spine
spontane
offs
offend
offensive
mayfl
caring
carries
##apo
claw
##bean
download
moreover
mold
bets
betting
blades
mule
##elt
##elm
marrow
cox
scooter
undert
gras
grusinsk
newcom
imbe
plead
##pless
emm
lasts
elo
throne
##uda
cro
crock
##izations
swat
smashing
##ptic
hoax
perry
flunk
flaw
flipped
suppress
handcuff
startin
phyll
hearst
##quette
##quila
traject
traced
##iously
interpol
intercour
reserve
schuy
param
insulting
##orrh
appleton
##ignment
context
warner
##roid
polar
glam
glue
reader
planets
teasing
harper
harlin
harrison
deser
paw
barbec
pickup
dolls
eyel
apiece
hotter
promising
##iba
reliant
skating
honour
fighters
bedtime
graph
awright
##gina
info
infl
simulation
bully
confuse
confined
hearted
beha
behold
##iva
madness
humble
hunters
##lands
delmar
stares
corb
corny
incap
discl
discount
##ensen
##ensed
freely
sexually
admitting
##ucing
salon
defending
##sylv
shipment
grandchild
artific
secretly
sample
subc
lounge
raft
native
ordering
midge
musk
classroom
absor
cooler
squir
nickname
protocol
accidentally
meredith
freud
caen
caffe
maximum
publish
##ergast
posse
positions
floors
sunk
##bted
majority
##bris
honorable
misd
pressed
values
feast
##aldi
##maid
creates
packs
brien
norbert
eyeball
appreh
armored
located
locals
risking
##ilians
fears
mainly
vanity
relaxed
campbell
hallway
boarding
allowing
cease
verona
verbal
limb
disappears
required
tasty
amazed
equals
gardner
addressed
marriages
suffoc
antidote
definition
sensible
loads
recognition
obsess
creation
mcg
##burgers
shari
tricky
tales
ruben
towers
juan
##roph
buttle
melvin
arrives
organism
detailed
terrifying
italians
concerning
massage
masseria
issued
technique
embarrassment
duh
duval
bells
precinct
cousins
##ophone
videos
bananas
combined
requesting
anglo
complaint
tourists
forehead
employment
relevant
severed
languages
repeated
execution
funding
plaintiff
malloy
appointed
references
included
albania
activate
miracles
negotiation
shifts
associated
partnership
principles
gaining
compete
priests
barnhardt
currently
attempted
rigged
shaving
reservations
demands
mummy
mumford
warden
cadet
ummm
critical
applied
explosive
chewing
cooperation
qualities
affected
dewitt
linked
micro
wrecked
vito
mysteries
warriors
humiliate
ironic
oakland
mechanic
revolutionary
gestapo
sympathetic
hustler
tribune
bolt
duffy
satellites
confidentiality
2000
cheeks
springs
instantly
sparrow
delightful
tactical
##lowe
molecules
georgie
insec
battles
mandrake
pupils
##writing
gruner
memorial
receipts
rejected
bundle
explorer
pigeon
pipes
measures
wrestling
synth
parasites
pennies
pennsylv
plumbing
inspired
annoying
involvement
democratic
historical
quadrant
skiing
wacko
meltdown
prettier
immortal
dreadful
pendergast
irrelevant
accompany
boule
##thorne
columbia
refrigerator
romulan
jasper
otho
sooze
aliens
chromium
irrespons
horseshit
counterfeit
shinzon
czar
prototype
typewriter
rekall
enrique
wilhelm
microwave
buljanoff
hairdresser
bijou
clemenza
gideon
rizzo
beethoven
sollozzo
grusinskaya
phyllis
trajectory
intercourse
schuyler
pennsylvania
irresponsible
33
55
911
au
aer
alyss
bind
bont
bial
bitten
cot
cine
cue
dak
dried
dair
dances
epid
fet
gle
gina
hoop
jin
jude
jumbo
ker
kle
kur
kitt
kitten
motto
nite
nipp
nba
oy
pim
pans
pins
ratched
sip
ti
tart
tau
tipped
tucker
ud
vet
viz
vald
vander
wisc
zip
##rum
##rative
##rants
##robe
##nob
##dn
##did
##dling
##aac
##fect
##fare
##pace
##psy
##lain
##cest
##top
##water
##wyn
##kh
##gant
##gio
##uett
##houses
##bott
##inated
##ata
##atu
thesis
##anium
whitt
whipped
wheres
##enson
##esus
anat
##owa
##aro
##isin
##ision
##etz
##omin
inev
##utz
heir
heath
ree
reib
mead
hail
hacker
isab
isaac
shab
forens
stun
stern
liza
##verick
##verty
knowin
##chm
##adena
myra
nods
##amo
##amoto
##anton
canary
##allows
sole
abst
##oda
outpost
chast
chunk
chilton
pry
##opy
##opher
atom
##icon
##icable
##estyle
worley
##unting
herman
alamo
##inder
##ilizer
everett
lookout
saves
##ively
plut
##uckle
seas
segr
seasons
##osity
arnie
arlyn
##endar
##aborate
willet
backing
backpack
lett
spic
spies
conor
##umble
brat
bred
cargo
troop
##apse
clair
cluett
workshop
overs
overp
overre
aft
drugged
gondor
blo
blur
blend
marv
mariet
marco
marijuana
intu
bugger
scattered
##issa
##issom
hugo
undo
grove
grissom
rooney
newly
joh
giron
remot
##placed
##anging
poe
poke
poverty
elaborate
keeper
swip
switzer
smy
hock
maverick
shitless
hike
lothar
monument
courses
flames
assurance
##cian
handic
phen
runner
disse
disney
disorder
dischar
elsewhere
##shaw
throughout
slot
slug
charter
harding
appe
apprent
babbling
attach
polo
gland
##onsin
financing
tequila
paycheck
tril
prev
preced
mornings
menace
sitter
surfer
barrier
barrels
babys
mets
restless
restored
apoll
beautifully
untouch
prominent
lawrence
secondary
relay
skunk
grabs
policemen
awww
infr
##otte
airlock
aircraft
##nov
doorway
trusts
milton
shoots
delusion
starters
expects
benedict
deputies
freezer
collapse
admired
rides
snot
snatch
snitch
##ucci
forged
retail
robbers
burial
patsy
grandpar
artists
curly
conclus
winch
redne
beatin
livingston
hanged
raven
raving
propag
##umbling
greed
extent
transpl
banking
dickhead
mistress
added
ruins
informant
nearby
felony
squirt
explaining
caf
paste
michelle
kissinger
coverage
##zzzz
judging
protective
casan
casper
##brush
drugstore
treason
##heast
smartest
valid
shortage
deepest
boatwright
neglect
radioactive
armitage
devast
192
bombed
rises
bleek
halloran
verse
verge
circuits
gerry
limp
healed
correction
karla
colorful
electri
appeared
##aius
obser
sheriffs
prayed
beaches
blocking
surviving
mcint
vacant
admirer
civilians
exposure
taping
portal
portion
portland
collecting
reminded
grif
sarc
meaningless
screamed
arriving
##ega
archd
archie
duchess
generation
lasher
precogs
luca
crawled
stockings
claiming
rambo
ramona
videot
hatred
banished
flee
ashes
ratings
cyber
arguments
employer
ethel
adams
domini
goddamit
congratulate
shrub
shrimp
gardener
celebrating
chops
fundament
taller
talley
indiana
tunnels
referred
cartman
cartoon
inspection
punched
servants
lednov
albanian
roderick
activated
lapd
amongst
fiji
strangest
persist
unfinished
vari
##offs
renew
fascist
wolfi
ferrari
implant
experimental
negotiating
despair
astron
hobbes
pouring
wardrobe
pitcher
applejack
terminate
cheerle
flattering
membership
lacking
troubled
iii
teenage
teenagers
##ebra
prosper
producing
vitamin
gutter
litter
becky
convenience
travelling
sacrificed
kilomet
whistler
replacement
savage
lynn
pitiful
mechanism
northeast
spinal
tribun
bolsh
waddaya
premature
baldwin
tammy
scrape
vickie
##ecou
tranqu
burglar
philosophical
flowing
volunteer
tactics
platform
resignation
increased
350
pasadena
bushes
established
muddy
athos
imperial
recruited
recruiting
essential
gillis
controlling
favourite
khrus
anesthetic
intimidate
grammy
tatum
tempted
signing
praetor
unreal
swedish
slimy
republican
economic
jeremia
reinforce
crusher
selena
bubber
bubble
riddick
retarded
turkish
colleague
wilderness
democrats
sssh
commodus
chronicle
sutphin
sustain
cosmic
caution
korea
saxophone
arroway
override
sniffing
curtains
purchase
demonstration
spectacular
alaska
distinctly
nashville
hughes
blacksmith
cockroaches
acknowledge
insomnia
immigration
nicholas
corky
edmunds
innocence
vincennes
microsc
scholarship
enthusi
authent
carolyn
conservative
incompet
brynner
insignificant
impatient
dwarf
unpredictable
massachusetts
hemingway
imbecile
eyelash
caffeine
boulevard
alyssa
bontecou
bialy
dakota
taupin
viznick
wisconsin
reiben
isabella
segretti
gondorff
marietta
switzerland
apollo
grandparents
conclusions
kilometers
khruschev
jeremiah
69
600
78
bos
bers
bix
berg
bode
cd
cors
cair
coop
damp
dah
dys
fitted
gat
gust
gand
hides
higgins
ist
kee
kop
lent
lain
lass
lens
mice
mph
muss
moose
moses
nude
nune
nsa
oly
ober
oona
oregon
pest
pame
pint
rim
rally
riv
render
rye
rival
siber
tink
vap
vile
wart
witty
xxx
yog
yank
zoe
##rom
##rous
##rimin
##eur
##nity
##drop
##ais
##pit
##pool
##lson
##lets
##lift
##letic
##liest
##cat
##core
##cup
##try
##tub
##wer
##will
##worm
##good
##uild
##hal
##hound
##mun
##bc
##bis
##buck
##bath
##buster
##you
##zie
##zini
##jamas
thorn
thail
##erone
##inction
##atr
##atore
##atisf
##onium
##aning
##anche
tol
##ingu
anten
ancest
##owl
##aria
##eta
##etric
##iti
##itas
##asions
heap
reign
reph
whatt
beep
beverage
bemb
haunting
dose
##leen
##idt
##storm
##struct
shatter
shades
shorty
forcing
stash
stumbled
stutter
libb
##verse
notified
noisy
##antly
##entric
alla
allies
outstanding
aspect
chaz
sued
##opic
##icial
##ando
##ieval
##rag
##raine
deploy
alger
alimony
##inda
sap
sakes
orb
lov
##igur
##igning
##istan
##istically
whereabouts
timer
##ulating
seiz
guer
exotic
##astics
willya
spa
spitz
conner
convey
##umper
carmen
ammun
tresp
trinity
lease
ench
needy
overcome
overtime
peop
peking
quint
unarmed
moe
blamed
blaze
mare
marble
marines
intest
coats
scru
scores
scouts
hubley
daytime
groo
grind
##ipher
##wny
mustard
##angs
emph
##adys
leaks
##adek
elbows
elias
##uddy
probability
criss
crude
couer
courier
sweeney
smiles
hoot
lottery
acme
flick
flare
floyd
assed
assets
handing
handful
handwriting
##orda
##ilda
secured
disarm
deadline
mothersh
##ateral
##eya
laf
##shell
interv
camel
moms
insert
insists
insanity
sling
slower
slots
slipping
slaver
slippers
recorder
diver
dialogue
warped
##ormal
babes
glove
accomm
finishing
teas
terrain
payday
payments
inviting
invasion
invitations
desires
##avius
stuffy
paley
barf
barks
barrett
##ashi
wonderin
holdin
gibar
meter
preserve
presidency
arena
christs
christie
easiest
standin
apes
figuring
forgets
evident
millenn
youngest
fightin
obtain
infirm
worryin
bullsh
goddess
shutting
airlines
significant
trusting
lighthouse
brakes
bracken
dreamer
indig
indef
indicted
sybok
madmart
humperd
consist
hunk
hunh
hunted
starved
reasonably
##neider
incor
incom
sidewalk
##ioces
truths
lieb
colleen
snort
robbing
strapped
caliber
calendar
elegant
regrett
patio
artistic
artillery
husbands
peterson
windsh
sweetest
painter
redhead
drain
magruder
subt
presidential
raises
richie
richards
belg
dearest
greer
refund
reflex
extinct
extortion
horace
distingu
testified
medio
medieval
destination
erase
ergo
##awk
rupt
merced
freight
teaches
flyer
topic
supermark
##oca
##ocated
##ounced
pleases
honesty
judas
caswell
##heim
treats
misplaced
davidson
connor
commands
involving
##ificance
drunken
strongly
junction
slowing
damon
norfolk
shermin
footstep
##boards
communists
pisses
bombing
screwy
hmmmm
fredo
postp
buncha
homicidal
shops
##cuted
macle
lotsa
apologizing
healing
suckers
esther
cowgir
equality
particip
##anners
dumbest
suggests
quarrel
masterpiece
princeton
suffers
sensational
observed
crem
ghetto
guarded
guardian
smokin
exposition
pinta
politicians
towels
##itorial
dumps
juarez
panes
collected
butts
piggy
grie
reprod
##paper
cocky
harmony
duane
mixer
bella
marshm
simpson
weaker
introduction
virginity
ramelle
gangs
banner
ignored
ashore
switching
degen
tourist
ethical
##ilsen
austria
wilkes
britain
moods
developing
bayon
mailed
kross
114
nicolet
nicotine
skywire
approached
encl
lifestyle
butterfly
##icycle
restaurants
includes
bernard
albany
napkins
pumps
jessie
rheya
woodsboro
cathed
elevated
stephens
briefly
corporal
regrets
sedated
##club
competitive
gateway
universal
ferrie
currency
acquainted
puppies
joyce
hayes
nursing
nursery
hobbs
stamped
phillips
commerce
novels
shelby
caddy
kimber
paintings
automatically
versus
holidays
ministers
pistols
lobster
convincing
links
contained
punks
rags
virtually
relieve
humiliation
humiliating
##ulsion
trembling
clowns
minority
lynch
mckin
##lihood
surgical
shotguns
ultim
##xxx
suzette
blessing
crooks
swallowed
championship
analyst
omel
##walker
luis
pooh
establishment
hitchh
nellie
007
athletic
##arnation
battal
khan
hemorrh
stalling
schmidt
consciousness
lengths
inherited
maniacs
leaning
obstruct
revealed
stalker
altitude
substance
torpedoes
roper
tramell
inspire
intellectual
mimi
exhibition
announcement
axe
conquer
conquest
diplomat
inquiry
masturb
permitted
sleeper
hartman
krauts
scrambled
stranded
biscuits
fossil
gauge
coconuts
resources
calculated
thoroughly
outrageous
protein
spanky
overheard
unemployed
remarried
titanic
fiancee
lodge
swayzak
superstition
precautions
fugitive
loosen
exorcism
festival
woah
emerald
prelimin
restricted
penalty
fragile
shuffleboard
crocod
adrenaline
minimal
clementine
sylvia
discouraged
duplicate
obey
ravell
shirley
nexus
monstrous
accounting
umbrell
eccentric
wladek
##occup
stifler
nebula
outdoors
corbett
incapable
subconscious
dairy
inevitable
lettuce
remotely
smythe
casanova
archdioces
tribunal
bialystock
cairo
gandhi
kopals
nunez
olymp
pamela
xxxxxx
thailand
rephrase
bembry
ammunition
scruples
mothershead
accommod
gibarian
millennium
humperdinck
mercedes
footsteps
36
65
63
87
aqu
bm
bry
bake
bak
bicycle
cmon
dand
dul
dab
dice
dile
dott
dual
duel
flem
fern
gul
gurn
gals
gaff
hin
hed
hath
hare
hilar
ií
iowa
kw
ketch
kessler
lark
lounds
lining
mit
mop
mend
mma
mirth
morde
nause
oe
ola
oops
pion
pix
pino
poop
rut
rus
rapp
sven
sought
ssh
samp
tying
tijuana
vot
vas
vast
vene
vatic
vista
wri
wool
wench
zion
zammit
##rid
##rater
##rings
##rime
##eenth
##eanor
##nea
##nard
##dles
##flies
##sucker
##sberg
##oided
##ointing
##lace
##cur
##cap
##cula
##wa
##wl
##wanda
##gil
##upp
##ucc
##xl
##xious
##hen
##holes
##mind
##mons
##most
##bre
##brew
##yamoto
##zs
##zas
##zetti
##vale
##jan
youd
##eroph
##inn
##inin
##inos
##innat
##oni
##onent
##anne
torah
whips
whites
##orus
anarch
##owitz
##eting
##omi
##omen
##omber
##asa
##asers
##rep
input
##utions
##aying
heater
hebrew
reich
reinc
beet
begg
weary
meg
haired
docks
##lee
##stream
##ghy
onions
sham
shee
shaman
##sell
##sexual
fores
ster
sten
stack
stump
notices
##amatter
##anth
##ented
##illion
##ooping
areas
sooth
abbott
allig
##inkle
##rift
##rief
shelf
chand
hereby
##oped
##opus
upbr
anyplace
##icia
##ieu
vein
velv
##racy
##unity
dele
decks
deception
debris
fret
frames
seeks
alarms
manzetti
oral
oranges
organs
##geois
plaster
plumber
timmy
##ulu
seamus
gund
##oline
##olia
##olete
arra
arist
arlo
arctic
##abilities
##ounding
backward
lethal
spike
sperm
brid
brett
brung
carved
carav
carrier
amity
amused
##ousing
agitated
clitor
leons
leash
happiest
overt
overth
overboard
overload
peasant
quart
drisco
##empting
unb
unnatural
moh
betcha
bled
bliss
blaz
blaine
##berman
##berries
mario
intel
bubb
coch
##agan
##agious
##agara
##aggio
wont
undead
wrists
soran
thoughtful
grill
grange
roston
newt
newsw
jock
##actory
mustache
believer
putt
##iche
remorse
empress
poking
lasted
leaf
elbow
crm
crows
crops
ads
adon
adore
minors
mineral
greatness
homecoming
uhhh
perse
doesnt
monk
flour
faerie
listenin
playboy
##ogged
startled
deadbeat
cracks
##shi
doneghy
strat
reset
reserved
parach
proving
boast
yale
##acs
slash
charenton
contagious
##angeli
dial
warfare
sonora
functions
fungus
chevy
##phins
attended
attempting
glance
glitch
##mma
foll
##ggers
harms
ahold
trifle
dealin
preoccup
compulsive
desec
farren
drivers
barge
barking
barzini
cutest
metro
pointless
bookie
unto
promote
##ibles
##peed
skim
skate
mille
##ceptive
grape
gravy
questionna
infat
infilt
earrings
biting
colet
indict
induce
##ieri
madonna
consuel
hunner
hungar
bloodshed
delusions
geese
steer
starboard
##cco
dino
inclined
disco
waterfront
bodygu
powered
snuck
defect
calf
regist
esp
sweeter
filter
reduce
reduced
dracula
magda
subd
uncut
orderly
musket
greene
clearing
refusing
refuge
extrater
bitching
testifying
glades
transition
transvest
transform
banker
bankrupt
err
ern
erotic
surprising
cooling
catcher
squire
squeez
losses
coffins
hospitals
fastest
accidental
condom
imagining
wallpaper
pasta
privately
hospitality
repairs
dresser
superstit
superintend
oughtta
doucet
purg
macho
blowin
rays
jefferies
considerate
##oula
invested
valve
spends
courts
courtney
siddown
demo
##ifications
roadbl
illust
illusions
respects
striking
iranoff
bastaldi
hopkins
advent
turtle
bathtub
jumpy
sandman
crosses
##cribe
weirdo
footprints
elle
ellsberg
layton
catwoman
lowest
carlo
dangerously
woodly
woodward
bleach
feared
relaxing
sadness
silo
roma
stationed
temp
camper
homo
connects
directing
splitting
investigations
investigators
##loaf
continuing
tasted
##keye
avoided
preparation
furious
programming
karras
gasket
##uthorized
drawings
seag
datab
territorial
clarify
necklace
mcp
mcgr
##burst
credibility
rainy
taped
sleaz
views
bathing
exceed
excels
feeds
dumping
juven
mexicans
notebook
fingered
grift
janitor
meaningful
climate
climber
climax
supporting
langley
balbo
balanced
massac
cooch
cheaper
agrees
generate
belle
belleroph
##ennial
##aminated
conversations
precrime
roberts
software
devils
warmer
rambling
gangster
uranium
sights
ashley
rosato
rosaline
females
statues
apparent
argent
breaths
101
development
repeating
nicest
immune
skywalker
gaye
villa
meatloaf
plainly
telephoned
mentality
mobil
lifting
blanks
otto
thursdays
oceans
vulgar
chained
rhonda
dusty
injust
injuries
falco
instructed
improved
facilities
canceled
debrief
gained
lesions
wessex
boundaries
acquired
negotiations
rackets
bouncing
demanding
spooked
pornography
beams
chambers
monkeybone
terminated
recommendation
tags
cheerful
##uthers
crucial
literary
##blance
conceal
conceive
tubes
launched
hesitate
reconstruct
ignoring
fascinated
rotting
niagara
deposits
bourgeois
divided
##esthetic
bumped
delayed
sympathize
adjustment
norton
chuckie
alternate
semester
salvation
salvatore
mamma
racing
racist
sewing
monitoring
premiere
distraction
interface
administer
burglars
casualties
cocktails
analyzed
iraqi
pollux
appealing
subscription
functioning
chimney
exceptional
compromised
ditched
unauthorized
butchered
prosecution
environmental
restraints
temptation
skept
dalai
exaggerating
obstetric
economy
reveal
outlaw
parasite
elephants
jellyfish
tolerate
globe
miyamoto
parrish
prospects
tackle
exhibit
succeeded
threads
shaped
brunette
contribution
chronic
tortured
corruption
gymn
klute
kalen
sutton
sustained
nostril
toothpick
toothpaste
shreds
carnival
additional
drexl
liddy
arkansas
cocoa
ownership
charleston
charlotte
petersburg
fossils
##ukk
ankle
ankles
##oppy
coconut
resource
encouraged
inconvenient
inconvenience
irene
irena
bruises
quantum
grenade
sanctuary
rhyme
kobay
##fighter
##initely
drifting
pyram
eliminate
housewives
condemned
anesthesiology
gwen
veteran
scalp
feminine
motorcycle
derek
hinkley
embezz
funniest
wagner
algout
screening
rapidly
vengeance
lingk
lundega
overseas
tampering
substantial
liaison
grasp
barbecue
overreact
infrared
devastated
shrubbery
bolshev
berserk
lainey
antenna
ancestors
whattaya
libbets
peoples
slavery
indefinitely
madmartigan
windshield
cathedral
kimberly
preliminary
umbrella
kopalski
bmw
dilemma
gurney
hilarious
oeuv
sampson
vatican
zammito
##innati
reincarnation
upbringing
velvet
caravaggio
clitoris
driscoll
bodyguards
extraterrest
transvestite
superstitious
superintendent
lundegaard
46
64
72
97
apr
aux
bery
biff
baw
cet
cact
cinc
cries
dc
dag
dade
drey
ewe
fon
fen
fraid
flex
fangs
gel
gail
ig
ion
icy
jell
ka
ky
kap
kla
kaf
lace
lure
laughter
muck
nim
nad
nym
ov
oun
oasis
pi
pm
pom
pall
ply
pate
pause
pies
ponies
ri
rol
rated
rates
rattle
rookie
ruled
siz
sny
sier
tus
vee
vind
vend
vine
vase
wits
xk
xen
yv
yoda
zen
##aul
##iated
##iologist
##food
##fair
##sen
##py
##lad
##lich
##lav
##lical
##lov
##crow
##tz
##tles
##tieth
##track
##wind
##wide
##word
##weg
##kar
##kill
##gom
##uar
##uji
##hm
##holl
##mad
##moth
##mary
##muda
##bul
##bank
##bitch
##bons
##bury
##bugs
##zuel
##zburg
##vich
##via
##32
##17
thugs
##oubted
##inate
##inople
##ati
##atical
##onimo
##anches
toll
##lle
##llll
##llium
##orld
##orvich
##enne
##edo
##owed
##arming
##isons
##eters
##itel
##itational
##asher
##asma
##ayed
hee
android
##erella
reek
rewr
whatsa
beacon
meyers
meurice
hacks
halo
havent
##leigh
##idian
##gher
ish
shiny
##kees
fors
formed
knot
stain
static
stored
lig
lib
##chai
nobility
##amous
##amination
##entennial
cans
##urst
nekh
alle
alloy
wantin
##rive
##ricks
chis
chau
sug
sung
suicidal
sushi
prest
prank
prague
upd
anya
##ieg
##ppin
##ppers
##rault
frock
herd
sag
manic
manson
manpower
ort
orgas
lovin
looting
plum
plag
plasma
goodman
selection
couldnt
exh
exits
exley
##oler
hisself
aroun
##astas
somers
##endon
##ablo
##obs
##obar
##obie
##obey
##earing
spac
spunk
brom
brink
twink
mayonna
maynard
mayfair
carrie
##ousine
trashed
neverth
nevermind
clum
clutch
caller
##tyard
pel
peer
peps
quaint
ungr
moi
moist
byp
muham
killings
marse
marce
margin
coil
coca
scour
scuse
scuff
scobie
##issance
undoubted
dayton
underp
underway
sordid
grim
gramp
nightclub
rocco
wah
wage
imitate
afterward
putz
emin
poets
##asser
elsa
olds
##udges
cran
crad
crate
couples
swift
smiled
hoag
maids
shitload
hipp
realise
realizes
greatly
peril
perverted
monop
##urned
courtyard
missy
fled
flam
flint
flock
asset
actin
supposing
handbag
phaser
##eph
hearin
disbar
dispens
disregard
disobey
##quin
##quent
##quate
stub
tractor
trains
traces
crab
showers
##mani
housekeeper
morals
morlock
serp
##shots
resid
resolve
insides
proxim
boll
boating
bogey
##acles
##orro
slid
slugg
slugs
recl
recoll
charms
charging
cheval
##phem
gladys
##onson
foc
harp
founded
tripl
inval
##ettle
farce
farrag
##lesley
pappy
bark
barrack
bringin
cuttin
senators
##ancies
##ultane
edna
editors
openly
fifties
thirst
excal
eyew
halfdan
gunshot
diem
darcy
##aires
reluct
billions
skank
hitter
genes
genev
obed
obno
await
infinite
simultane
bulls
jez
password
confessed
##aha
shuts
airborne
colson
signatures
significance
humility
shooter
delac
##ussion
stevie
starck
stargher
##nec
##neil
blackjack
deter
##oko
collateral
admissions
riders
ridden
snack
##uces
retards
salieri
straps
fulla
grandson
##ippy
petition
petals
array
##liner
filing
majors
subl
suburb
substitute
hangs
senseless
racial
proph
richer
annih
muscles
statements
extrad
profound
classical
##otech
visits
ballroom
ballplay
radius
erased
owww
adds
addiction
addicted
keitel
foolin
psyched
shallow
squash
markers
popped
merit
walters
condoms
condesc
imagin
##coon
pastor
privy
repay
reply
counse
##ocity
costumes
##gann
##ounce
machinery
stepmother
musicians
judd
##brand
##bruary
viruses
virgil
pressures
bases
investors
valerie
february
cryin
demille
involves
blueprints
largest
stricken
shorts
##govern
irony
solved
solitary
strongest
michaels
bribed
jung
slowed
garland
toughest
cabins
cabbie
advances
bustin
ticking
denial
denham
dennings
brainerd
baths
motives
jumps
sanderson
witwer
cashier
ella
ellis
detected
layout
formula
commune
jameson
deviant
thirds
doubted
escobar
alexand
occasions
screws
duncan
allowance
efficient
efficiency
verify
vermont
germs
geronimo
posted
postcard
fishy
limping
limbs
limousine
accounted
churchill
macneil
hyper
castles
presented
estates
amazes
equally
hideous
prepost
angela
##ructor
louisiana
kara
failing
masc
nosey
hooks
gasoline
##guer
bandages
julius
summers
draws
correctly
holoca
##bbing
mcgann
raining
rainbow
dependable
gifted
expend
expelled
difficulties
talia
rubbed
lambs
##ronic
rivers
intruding
hostility
males
griff
arrival
##minate
berth
bermuda
technician
##affrey
pretends
generator
generosity
projection
puzz
lindsey
raping
pools
pathological
banned
gordo
scottish
suspend
##eteria
ratan
galbra
angles
hawkeye
freaky
mccaffrey
hamlet
furthermore
tours
freshman
bondage
gaming
gallant
sporting
mailbox
sinned
remaining
assignments
pocketbook
toothbrush
gayle
scripts
execute
quoting
cartel
butterfield
##ermo
ledge
poww
magnum
strangle
unlucky
rhode
shifted
concentrating
cultural
variable
variety
improv
mathilda
##nnn
dumber
cancelled
jonas
unsolved
gains
competent
panty
officials
betrayal
implications
montgom
webber
acquis
mulv
attempts
foreigners
sophia
hayworth
rescued
ducks
##arajah
hudsucker
##ooooo
spooks
pizzas
fruitcake
applic
naomi
pitched
revenue
chewed
educated
flashlight
lipnik
cavity
candid
reviews
responding
produces
constantinople
pedro
pounding
franch
oaks
savior
occupy
challenged
scenery
divide
miguel
whatsamatter
cloaked
drums
mantini
hauling
prevented
declaration
methodology
tigers
semi
semple
bolts
corey
premium
distracting
biological
jenkins
nikki
pentangeli
peanuts
privileged
casualty
documentary
cowardly
territories
tutor
items
bidding
hatchet
fluid
obligation
luci
dillinger
octopus
beliefs
shouting
genuinely
gravitational
strawberry
frequent
23rd
isolation
nominated
neurotic
plotting
prosecute
cinderella
egon
opium
tatiana
restraining
soviets
tsch
praise
exaggerate
swede
exploit
republic
confirmation
weighs
gorilla
whitney
possessive
certificates
fiddle
parrot
landlady
fisherman
external
lemonade
accepting
smuggling
regional
maharajah
improvement
crafts
merchant
merchand
initiative
dolphins
miniature
correspondent
dartmouth
elders
gazzo
luxury
unemployment
simpler
anticipate
overwhelming
tumor
daryl
daryll
shangh
noooo
slayers
mathematics
tahoe
enlighten
sculpture
tomatoes
oblige
mayhem
resemblance
cavalry
bahamas
renault
zombie
sausage
enlisted
drooling
emptied
figgered
saddam
galaxy
hypocr
challenging
bicentennial
tidy
repressed
nevada
resurrection
metropolis
inheritance
biblical
gilbert
krem
comedian
grandchildren
misdem
cinema
fetish
jinx
whittlesley
anatomy
abstract
intuition
apprentice
redneck
cafeteria
enthusiastic
bodega
vapor
yogurt
teasdale
infirmary
postpone
macleod
archdiocese
hinkel
mirtha
mordechai
venezuel
beetle
beggars
##anthrop
harmsway
preoccupied
questionnaire
consuelo
registration
juvenile
balboa
bellerophon
injustice
##ukkah
kobayashi
extraterrestrial
beryllium
cincinnati
dreyfuss
klaatu
kafka
nymph
snyder
##holland
nekhorvich
orgasm
mayonnaise
nevertheless
pepsi
ungrateful
undoubtedly
disbarred
recollect
farragut
geneva
obnoxious
holocaust
galbraith
montgomery
54
57
79
7th
81
900
az
aston
aches
batch
bord
bending
ci
cb
cone
cess
cain
cel
cuss
cages
cement
dunk
dense
ez
eee
elly
eaves
fitting
ga
gap
gild
gower
gork
gaw
hir
hul
hips
huckle
ib
ick
jest
jup
jeth
jugg
ki
kab
kint
kens
lh
lur
leel
lath
lured
lonel
luh
lanes
ming
mos
mates
mute
mumbo
moust
ness
nour
niet
nyl
ping
pta
pank
pater
pablo
rhin
rites
rushing
sz
tes
tad
tess
tul
tep
tents
tipping
tiring
uc
uk
vous
vert
void
wop
wain
wann
wager
wishing
wolves
yoke
yarn
zur
zach
zimmer
zaius
##rough
##roy
##eon
##eers
##near
##nier
##nne
##nuts
##dock
##dream
##driver
##pea
##pie
##pey
##lic
##cill
##call
##cend
##cers
##gence
##gled
##uity
##upt
##ujah
##horn
##haven
##mie
##made
##mute
##mobile
##bies
##bach
##jesus
thx
##oux
youse
##aters
##onious
##anny
token
wham
whoops
anom
ansel
anastas
##eder
##arians
##isure
##isms
##eted
##etry
##itis
##itating
##omon
ine
inoper
hep
heist
anderton
rect
rept
reef
bees
bebe
beamed
weiss
weeds
doomed
dobis
##idated
##sta
##sten
##stri
##stated
##ghead
onboard
##lda
##ldom
gozer
shiv
shaken
shipped
shattered
##kell
##sea
##aler
forge
forum
forming
donkey
knack
knicks
sta
stans
stated
stove
stages
stagger
lipp
liability
##chen
##chron
notch
noc
noct
nood
noel
noses
nobles
##anter
##entin
##entive
##eek
canv
canned
nept
nelson
soy
socially
soaked
getty
allan
justify
shemp
chal
chant
chey
chub
chlo
chipped
choos
chaser
chorus
pron
pruss
thinker
upright
upstate
##icides
##raved
##rained
worthing
##una
dement
deuce
decker
dejesus
frat
##acked
seeya
##oreen
sau
managing
loot
loft
plun
timers
##ulum
sears
##ifix
##ifiable
guided
exquis
hiss
arb
arbit
armani
compress
compton
##astly
willa
willard
##obia
##aka
##nais
##nace
spat
spur
spilled
spilling
brow
brent
broth
brides
brute
##ittance
hadda
haddon
twas
twig
tweak
##icker
carmine
ames
amar
amish
amado
amigo
##ouss
troy
truce
troph
trooper
agony
agenda
clive
clap
cluster
clinton
callow
leisure
enlar
##orted
pep
peg
pegged
quell
quentin
droid
drastic
##emore
##ements
unite
unident
unhe
unrel
blas
blender
muh
mund
##elity
##elines
##elujah
marc
marzz
marcie
intoler
buggy
coins
##agl
scur
scots
scroll
scales
scorp
hub
hubert
daydream
##few
##feld
underdog
wrench
waal
waist
joints
siren
afterlife
lifeform
leaking
leaked
elm
elit
thrilling
advis
swings
swallows
partially
hippie
placement
perk
perch
perkins
perception
perrault
monro
missoula
understandable
playwright
##ogue
##ordi
phasers
##athon
runaway
disk
disallow
dislike
##quer
##iffer
trav
travers
crappy
##manus
headin
lav
lacer
##proof
stressed
strader
strasser
parallel
insol
insub
slur
slag
slipp
slides
sluts
sledge
recip
contaminated
meetin
diap
diving
divisions
warne
warmed
warhead
##ormed
sonuv
cheque
cheesy
##roix
breeding
glum
readin
readout
businesses
livelihood
finnegan
cleans
##ggered
harlem
triangle
pref
invade
menu
tenor
schoolboy
survey
dripping
pajamas
barbie
wonderland
endure
endorse
holder
sounder
edwards
metall
rests
##lington
excl
decoy
booking
monthly
darlene
hurtin
##eeth
evolve
copied
##ibu
##ibur
##ibble
skies
skins
eighties
seth
grable
infamous
simulator
##azza
jeans
##erto
trustworthy
##ivate
exploded
dreamt
syna
##onto
consent
consig
consol
console
consume
consarn
delic
delta
delaney
geography
geographic
geordi
instructor
firefly
fireworks
sorted
importantly
buyer
certainty
##ologically
admittance
rider
snip
salmon
burying
burbage
burrit
sentry
sentences
patty
arranging
curfew
singular
millionaires
##apeut
filmm
filiba
sami
wearin
driveway
hangover
builds
presidents
uncon
uncont
uncomm
props
ladyship
studs
reflection
extensive
worthwhile
gladiator
visions
visited
impound
impost
meds
transf
smallville
trainer
seller
laurel
specialist
favorites
felicia
darkest
marking
throwin
condo
operative
##cox
flyin
flynne
##oculars
disappointing
costa
fixes
penance
penfield
##zzi
pleasures
posit
laughin
rosemary
baggage
palermo
apartments
mischief
valium
fees
strangely
smelling
striker
birdson
mentioning
##going
packard
packages
solomon
boris
suitable
juneb
damages
norweg
sherwood
sheronda
denby
bathe
##uffy
crossroad
weirdest
cashed
lays
arrests
catast
catalog
cardboard
communicating
daft
appreciated
##iliary
bleeds
vanilla
sadly
sadie
occurs
silicon
violating
halle
hallelujah
lads
laddie
oppress
moderation
sanity
macready
macaul
casting
##inois
aviation
furnace
##annon
frenchman
dumbass
louisa
louisville
royce
photon
masry
sailed
gaskell
bands
jules
constable
sensor
sensit
sensual
obsolete
seafood
washes
clarendon
blockbuster
speculate
mcgovern
mcmanus
ghastly
frightens
missionary
examining
sleaze
portable
leeches
juicy
intrusion
collector
malign
malibu
melod
melted
therapeut
gripe
janine
cracker
cracking
crackpot
supports
mmmmm
dancin
matched
berries
randal
lynd
licensed
successfully
lasers
roughly
stanzi
paths
chickenshit
ramos
##ophren
banquet
ignition
scarecrow
lifts
booby
kayleigh
venus
voltage
characteristics
cyl
cyril
mccall
ryuji
rumour
swords
describing
borrowing
domination
hillb
releases
severance
sneakin
moody
revol
kris
reactions
remained
corned
immense
immature
bums
chopping
poisoning
poisonous
189
funded
punishing
unharmed
bedrooms
emotionally
20th
butterflies
snappy
blankets
ott
bulletin
targets
lisbon
miraculous
illegally
mortals
pinkerton
shielding
stinky
peek
concentrated
cultures
falcon
impro
imprison
fingert
mathieu
chateau
claymore
denton
dumpl
tails
tailor
debut
lectures
tuesdays
unsub
tabl
amounts
antiques
railway
beauhar
ferry
implied
wyoming
twisting
sophom
wintermute
bounced
paden
cheeseburgers
novelty
##oooooooo
regardless
kimmy
critics
applications
automobile
osgood
pitching
annex
replacing
grayson
cooperating
qualify
recommendations
blasted
cruiser
joshua
##blers
picass
##weil
clinical
temporarily
deduct
dedication
passports
hacking
kinnear
whistles
hammond
savages
assassins
occupation
watson
hanukkah
aggrav
fortunes
networks
ozone
wadda
sewer
deemed
niki
scraps
poems
grasshop
analyt
razinin
##itarian
##strong
warsaw
democracy
alfredo
bogus
humpback
beeper
ohhhh
cocksuck
gabrielle
criticism
yuppie
neutron
vegetables
scams
imperfect
recruit
injected
decorated
detonate
pupil
episodes
kurtzweil
egghead
exploring
auditioning
telegrams
dugan
defeated
munro
yankees
##putin
unreason
groceries
synchron
republicans
dictate
heavier
sequence
traumat
gynec
whitman
stirred
liverpool
blackmailing
gabriela
dubious
faintest
skirts
electronics
mushroom
compensate
flooded
consumed
750
bruno
lazar
commodity
translate
merciful
mercury
perpetual
arab
inquiries
frustrated
gulls
arrogance
hysteria
baptized
fulfill
sankara
vibrations
carniv
putterer
hallucin
hallucinations
specimens
prettiest
demonstrate
aaaah
biscuit
ivan
abduct
aspirin
clicking
corpses
treasury
encouraging
accompan
binoculars
stairwell
grenades
remarks
crucifix
advertising
townsend
departure
cockroach
rhyth
rasp
rasputin
flavor
folded
drifter
evacuate
impersonal
transmitted
errands
hydrogen
precaution
hendricks
telesc
stimul
crazier
housewife
excessive
disconnected
destructive
continental
ecst
##hyd
wholesome
seminar
braslow
intriguing
comprehend
obscene
cyclops
stabilize
asteroid
ooze
theoretically
chooses
carriers
carriage
ordinarily
cappucc
wuddya
inexper
convertible
enhanced
schizophren
inferior
earthquakes
souven
hassle
geoffrey
deprived
optimistic
category
aubrey
dorsia
korean
tuxedo
anaesthetic
emmett
handcuffs
glamour
behaving
artificial
suffocating
mcgill
epidem
kurten
kittridge
udall
chastity
plutonium
marvosa
discharge
propaganda
astronaut
reinforcements
authentic
incompetent
bergman
algeria
seizure
incompl
liebkind
supermarket
cowgirls
hitchhik
gulch
stenographer
alligator
gunderson
cochrane
hunnert
database
skeptical
resourceful
auxiliary
cactus
ounces
sierra
alleged
chisel
spacesh
clumsy
muhammad
grampa
monopoly
morlocks
bollocks
focused
excalibur
simultaneously
delacroix
suburban
ballplayer
preposterous
powwow
shanghai
hypocrite
misdemeanor
eavesdrop
gilded
gorkon
huckleberry
kensington
leeloo
wainwright
wannab
anastasia
dobisch
lippman
chloe
exquisite
haddonfield
unidentified
marzzone
monroe
disallowed
slippery
junebug
crossroads
macaulay
beauharnais
cappuccino
43
56
59
76
84
9th
ai
ave
ail
bach
bav
bash
bied
bows
baff
bomber
cp
ching
cic
cull
cates
cens
cuc
cider
crick
crib
ciera
dm
dj
dome
dic
dus
dang
doth
dimin
dye
delly
diction
dazz
doreen
eu
ech
eel
elder
fou
ful
fey
fists
fury
fender
fences
fainted
gav
gents
gender
gaze
hens
holog
hittin
hilton
housing
ire
jr
jorge
jorg
kook
kul
kos
kai
kung
kenn
kamins
kiki
ls
lan
latch
louse
lull
lash
lins
liner
lomp
mh
mb
moo
mab
mose
nip
norr
nug
nintend
nilsen
og
ore
ome
pak
pact
pav
pors
poof
pester
pending
pomp
ration
rue
rents
roul
rik
races
sith
sly
sart
sate
sans
sigh
sized
ting
tine
tac
tai
titty
vat
vult
voil
vivid
voted
ww
wink
wuss
wages
wimp
winton
yen
yikes
zu
zh
zer
zin
zow
zap
zebra
zorro
##rer
##rates
##rists
##nut
##normal
##aved
##iour
##iences
##ienced
##fell
##fits
##flow
##sch
##oats
##pil
##puss
##pired
##lier
##cre
##cine
##tore
##wit
##gi
##gado
##uder
##hall
##hist
##hol
##mott
##mama
##maker
##bus
##bab
##bound
##bbe
##bish
##yman
##yards
##zis
##zia
##zens
##vere
##vation
##22
##jay
##just
##jour
##jac
##15
thal
thai
threes
##oure
youve
##inum
##inty
##inals
##onal
##onder
##onzo
toad
toont
##ingham
##lli
whim
whop
whiff
##oria
##orient
##enas
ante
itís
##arin
##etting
##etrack
##itness
##ask
##aska
##reed
##real
##recy
inad
inning
inez
inhib
inquire
##uting
##ayette
hex
heid
heating
reap
reese
rewind
whatnot
beery
beyn
beads
weaken
mellow
megan
mebbe
hap
hab
doom
dove
dogg
dozens
##stak
##stead
ons
goble
goals
goering
gosp
shm
shes
shud
shush
shitting
##keby
##alysis
##ima
##imated
donor
donation
donuts
kneel
lionel
##chi
##chs
##chon
noted
noticing
##ceeding
wastin
waski
##advant
myr
nos
nov
##ithm
##amine
##enteeth
##eee
##illo
##urf
##urai
##alled
##allister
##outing
necks
nebr
##ional
soak
socc
abra
abilities
allie
outr
outwe
outburst
asc
shepher
chu
chink
chel
chile
chipp
chino
chipper
howl
prol
prair
prying
upriver
athe
##icies
##icators
##icuddy
##andi
veil
##rave
##estro
##uns
##unes
depl
degr
deja
fren
frantic
herald
heresy
whyn
alot
alison
##ilate
##ilian
##usal
##usive
saig
mann
mank
manages
manray
manhood
managers
lobe
loony
logging
usin
pliss
pliers
plastics
##igible
goodies
timid
##ulet
semen
sections
seldom
##osse
##ifact
##ifred
exert
##olism
arbor
arlington
comics
comments
##vene
##venworth
comeback
backst
meaner
splin
spades
spears
talker
bris
brod
brake
##icking
carc
carib
amp
tron
trot
trent
trough
trub
truc
trumbo
clips
leer
lever
leeds
leverage
envelop
enroll
##ected
overst
overall
overly
overest
overflow
peed
quid
quittin
drilling
##emont
##oya
unin
unle
unim
unner
unpar
moor
bloss
bloke
blames
blushing
mugged
##elin
##bergs
marlowe
marathon
intruder
buick
coz
cov
coal
cokes
##agra
scab
scagn
scanners
##through
##ffle
hudd
hullo
evenings
##urek
grin
grunt
grudge
greta
nighting
nightfall
nightcap
rogue
newport
joad
jolly
helpmann
longing
longfell
##acher
plea
rembrand
##dermott
poetic
leavenworth
##assed
elton
elster
throats
probie
crest
crates
croup
cruz
crumble
cougar
ade
adoles
adapt
adolph
swap
swarth
partly
mait
maestro
miniat
##ossal
hier
hijack
homeboy
uhn
lotion
peru
perj
monaster
monarch
monitors
acute
##urnal
badges
fling
flown
faw
##into
handsh
careers
##ogast
##ogical
##ordination
##atha
secrecy
hearse
disl
disorient
disadvant
##qual
mighta
traitors
womb
minding
morbid
seraf
##eye
lacr
##pring
stray
camelot
schae
schneider
momo
paralysis
insin
insens
pretended
tonic
prover
prostit
bozo
worldwide
slop
slime
recy
hardcore
contem
contro
contamination
warming
warrants
commend
committing
sonar
##uba
funky
cheery
##roc
sixpack
policies
gloss
finland
harri
foundations
payoff
trials
composed
##isters
invoke
##avo
capone
tens
tenant
jacked
jackass
jackets
jackpot
stuffing
farming
pais
cutter
endings
shostak
picket
presently
fifteenth
countess
countdown
decipher
breakin
checkbook
darien
prompt
lawford
evasion
##ibal
billi
billing
skiff
skyn
hitman
millimeter
millaney
honors
specially
numb
obi
awe
awaken
questionable
##ugal
jeh
passive
##aho
##ahad
heartless
colour
##ivated
indication
indisc
syrup
considers
delir
delbert
delhi
delgado
factors
perfor
dinners
honeythorn
incest
inciner
benes
benson
depinto
discred
watering
watermel
buyin
##apper
collapsed
##ups
sneeze
snooping
##ucon
forgery
salute
salzburg
robins
defended
burgers
regards
regulation
grandmama
artifact
petting
touchdown
esk
esper
suspens
conclusive
concussion
concannon
singh
singles
legacy
filters
samurai
draggin
##ushova
##soe
magnes
hangin
uncles
cleaners
saturn
midst
greenteeth
clearer
clearance
refill
refres
profanity
visas
straightening
impot
impulsive
##owski
ballast
ballistics
transp
transcript
transsexual
smallest
##tenfuss
buckley
colds
##riced
frontier
keating
centers
felon
squeak
losin
nickie
##rament
darker
popping
merk
merci
mercut
merrill
typing
wales
##coats
fairlane
caves
locking
repet
repell
reprie
repulsive
superiors
affl
dougl
disappro
##fortune
##zza
##zzie
judged
judges
casket
casinos
##bral
##brook
considerable
treaties
misfortune
presses
burnfield
valued
stickin
feat
clocks
demise
illumin
illinois
lords
##efur
lara
stripe
stripped
stripper
irreg
solitude
drunker
practices
hopper
garlic
rockwell
eyeballs
boatman
publicly
sandefur
toronto
layer
##bedded
cardinals
formality
armies
communic
lowry
digg
digit
camps
camping
greenhouse
fatig
niner
belonging
rollo
fishin
prodig
produced
acceptable
sanitation
directive
##cutt
macdonald
investigated
empath
southwest
healy
suggs
equation
settling
##ueless
deliveries
wildlife
fails
sails
sailors
##gued
antig
sensed
labs
fitness
holmes
claremont
blockade
mcdonald
mcallister
mcdermott
ghoul
vaccine
sharper
pinot
pinback
pinched
talents
franco
rubbish
martinis
renting
##fucka
slew
baton
batty
batting
exceeding
fellowship
panama
hostess
collective
malt
malaria
melissa
criminally
sarris
crackers
oddly
objections
bala
creeper
bodily
bodhi
archive
archae
cocked
cockpit
cooped
agreements
assistants
generated
bellev
projections
flights
lucille
puerto
tita
scarf
stocks
ugarte
emergencies
rams
motherfucking
satisfying
preference
olives
##etera
boobs
switches
galahad
angora
hawthorne
provides
freakin
cyrus
mccay
attorneys
ethi
bonding
domain
josé
wilkins
wilshire
accessed
jealousy
sneaked
fanucci
gallon
galley
gallons
salesmen
sociopath
fridays
sinatra
snowball
storms
diseases
kirkeby
immoral
immunity
pairs
corrob
witchcraft
buffet
matin
mutilated
approaches
expressing
punct
punters
##gaard
appointments
mentor
lifeline
cartwright
punching
chapin
chapel
chaperone
logically
behaviour
psychiatrists
silverware
naples
crowds
pumped
floris
funerals
fiber
strangled
junkies
rhym
pillar
primer
spelling
traded
surfing
typically
rushed
safest
hypn
120
whorehouse
ronny
canceling
entertained
unsure
lesion
mileage
internship
scratching
scratched
deckard
cherish
epile
bangs
embrace
priorities
circumstance
mulholland
deceit
deceive
foreigner
diesel
mackey
haydn
despicable
paddle
pours
liberal
reservoir
advantages
disgusted
whacking
stretched
inventory
kimball
pizzer
bailed
oskar
replicators
dipshit
chinaman
qualifications
flashes
rancho
avenge
ribs
tagged
librarian
predator
predicted
pursued
deacon
eti
ettore
kuato
cruising
ragged
wickwire
conceived
concealed
virtucon
philosopher
falsely
deranged
pedal
peddle
pacif
vitamins
initial
hesitation
beasts
temporal
gathered
tassel
tends
tendency
##namon
surgeons
buddha
hacked
sacrifices
21st
cerebral
sacrament
clifford
scanning
scanner
palmdale
miggs
##liere
steaks
nobleman
drumlin
intentionally
bumps
adjusting
adjusted
puffy
remarkably
actresses
aiding
dyke
rudolf
wadn
paradox
premier
patrizia
jennie
nikes
nikko
oooo
ooooh
rebell
spectrum
scrawny
privileges
chamberlain
##strom
sparks
sparrin
booty
bootle
bidder
platoon
platinum
resigned
increasing
concerts
1967
wiser
coordinate
greeting
hitched
multi
nuwanda
georgina
criticize
5000
shouted
vegetarian
consequence
imperative
dismant
syndicate
essence
wraps
tonsils
greeks
lonnie
nomak
unaware
gramm
colonies
prosecutor
vicinity
mythology
restraint
skelet
skeleton
##omaniac
helmuth
relatively
dalton
muncie
tsavo
measly
guinan
sweden
shoveling
exploitation
econom
wandered
##escu
altar
corpus
penguins
administrator
egyptian
gorman
rearr
manifested
severely
vaughn
toxin
mocking
interfering
sketchy
sketches
retrieve
puppeteer
molest
compensation
compensated
strategic
slammed
consumer
bondsman
durden
lenin
lenore
ingenious
worships
inspiring
brewery
cursing
diplomatic
arabs
vouched
frustration
carrot
carrots
infantry
expanding
assassinated
baptist
fulfilled
zeke
guilder
amateurs
stubbins
sleepless
neutralized
rituals
kraut
kelson
kelvin
##rusted
##girl
inhab
weeping
diagnosis
harassment
metaphor
metaphors
leadership
purchases
penetration
penetrate
immortality
initiate
spectacle
tattooed
dismissed
achievement
hindus
linen
sodium
ensure
polymer
cramps
boiler
treasures
specifics
navigation
elden
rooft
##court
staircase
sultenfuss
overheated
##ffeur
coupon
advertis
transmitter
dispatches
aaah
cinnamon
tumble
evaluation
evaluate
consultant
transmissions
electrocuted
acknowled
manufacture
cortex
jaguar
burgund
verdict
rehabil
penitentiary
rashid
tahiti
yakushova
styles
demolition
negligent
negligence
thighs
diversion
calculate
contradiction
motivation
wudan
velocity
tropical
hoffy
supplied
earthquake
cauld
lagoon
loathe
spacedock
scoundrel
scoundrels
accusation
accusations
transporter
transporters
tyrone
bimbo
bikini
rasczak
spontaneous
mayflower
paramount
graphic
obsessive
repeatedly
microch
insecure
cotter
nipples
##chmacher
overpriced
johana
swiped
phenomen
disneyland
glands
prevail
transplant
neglected
electrician
observer
variables
unrealistic
microscopic
dahl
dyslex
siberia
aspects
groovy
emphasis
lafayette
reflexes
degenerate
bayonet
enclosed
mckinley
omelette
battalion
masturbation
bryant
bakery
dottie
fleming
ketchup
russell
deleg
bridges
newsweek
parachute
infatuation
purgatory
exceeded
excelsior
argentina
pyramid
bolshevik
oeuvres
flexible
igor
forsaken
chauffeur
somerset
marseilles
underpants
eminence
hoagie
chevalier
triplette
eyewitness
mascara
expendable
improvise
franchise
venezuela
jupiter
jethro
lhasa
loneliness
mosqu
moustache
szpil
teschmacher
inoperative
neptune
cheyenne
choosing
worthington
arbogast
calloway
blasphem
prefers
synag
consigliere
uncommon
sensitivity
therapeutic
unreasonable
traumatized
rhythm
telescope
mcgillicuddy
incomplete
spaceship
ireland
jorgensen
kulok
kaminski
lompoc
nintendo
omega
zowie
toontown
heidi
nebraska
soccer
outweigh
prairie
saigon
plissken
caribbean
scagnetti
longfellow
rembrandt
miniatur
monastery
serafine
insensitive
shostakovich
skynet
suspension
magnesium
mercutio
douglas
irregular
bellevue
rhymes
szpilman
66
68
74
71
8th
95
ald
aver
ary
aus
apt
aint
alder
bere
bau
bick
braid
bork
bung
binary
baza
cc
cds
dia
dames
dup
della
density
ether
eich
ester
ehh
ebby
fay
fives
fumes
fowl
gad
gator
geller
hh
hoth
hoof
hints
hoops
haste
jp
jor
jee
jive
jug
jello
jumper
jurek
kg
kam
kittle
kool
kamp
kaz
katherine
kettle
koko
litt
lother
lub
latt
lyle
lana
luv
mook
mish
mash
mio
merv
makers
nes
nast
nada
nifty
ora
ooops
pd
pess
pau
pont
pows
punt
poul
porth
pots
puls
rou
rall
ruck
rach
rav
rating
ringer
rache
rican
roust
sg
sill
tion
tic
tame
titt
tuts
tippi
vu
vort
voss
via
vial
vox
voting
vlad
wu
wong
wider
xan
yi
yay
yur
yllo
yanks
zed
zander
zimm
zalt
zulu
##net
##nna
##nation
##dad
##dick
##del
##dish
##aan
##aith
##aci
##azy
##acious
##iak
##iago
##iques
##fi
##fun
##full
##fold
##felt
##sons
##singer
##oi
##pan
##pay
##pic
##pike
##lac
##lett
##cas
##ccept
##cular
##cases
##wun
##witt
##wick
##weal
##western
##wurst
##kt
##kk
##kis
##kick
##gf
##gam
##gang
##gley
##gale
##ught
##hl
##hot
##hart
##hof
##mies
##but
##bust
##boo
##bble
##bah
##bilt
##bishop
##banks
##zio
##zai
##van
##vial
##jor
##jee
##16
thaw
##eroy
##inis
##inform
##inburgh
##atus
##ono
##onents
##onne
##anim
##analy
toons
##lll
whoop
whining
whippin
##orf
##orin
##oration
##orhe
##orius
##eny
##enous
##esher
anus
anita
##arations
##isl
##itus
##itud
##itives
##ompress
##omination
##asive
##asco
##reides
inau
inade
inquis
##ayin
##ayas
hein
hewitt
andr
andre
##ereign
reagan
mein
hale
haze
hailing
dole
dost
doork
doss
##lector
##iddy
##stop
##sticks
onion
onna
isla
goo
shi
shill
shri
shook
shines
shaked
##imited
dong
stard
stear
stip
stint
stared
stained
liars
liby
lili
notor
##ceivable
wast
noose
nosy
##ustomed
##irable
##amm
##amie
##among
##amish
cane
canoe
withstand
##ooo
##urg
##alling
##outhing
sob
solem
abol
abide
abnormal
getaway
allright
allah
##tered
##odel
outright
outcast
output
##rils
asgaard
##ndown
##each
chas
chir
chol
chills
chlor
chimp
chaste
choking
hows
sula
suez
prud
primate
##opol
upl
upgr
upham
uphold
atone
atreides
##icism
##andra
##ppas
##pple
##rapin
##estion
deanna
deird
frater
fritz
frogs
herm
hersh
alf
alias
alonzo
##usible
##uscript
##arten
sauc
saks
sabb
manure
manfred
manuscript
orton
orgy
##geon
lolly
logged
uss
platter
##iger
##igma
##istical
##ucking
##ulses
##ulnerable
seize
seals
seism
semit
seeds
##osin
##oslov
##ifting
guine
guides
export
arent
arlet
artery
arithm
##atement
comical
##astically
##ende
##endrick
##abor
willy
backtrack
meanest
##aki
##akia
spud
spitting
spills
conan
converted
talkie
brus
brouss
everytime
mayol
carat
##oused
trout
##apy
aging
agencies
agatha
cler
clam
clob
clash
clover
clueless
leans
fuckhead
enfor
workout
needles
overwork
overrated
overpower
pem
peas
quill
quits
unatt
blues
##bering
marl
marm
marily
marcel
marguer
intra
intensity
bugged
cog
coon
wonders
scatter
##ffer
hugging
undet
evenin
yearbook
##ishes
giveaway
grouch
gretch
grimes
rok
rog
rolex
roaming
longsh
imped
sirens
beforehand
pleaded
remov
poach
polly
poached
poked
##tail
##irez
eli
elite
throb
##udel
probable
cram
crises
crashing
##izers
adap
parting
smurf
##pto
##ptuous
mae
mao
maim
boycott
minnea
hiking
realm
realization
realizing
perce
perrier
understatement
monte
flux
flashing
facial
listens
handker
handbook
##oga
##ogy
##ogan
philly
phara
phoning
runners
buss
busboy
disability
wouldnt
trapper
craps
crapper
crazed
motherhood
tomm
##mans
##mances
morally
morons
morrow
##eyed
headline
lacy
##sha
strudel
interru
resolution
resulting
resounding
camels
parks
paramed
parlay
parais
wasnt
insul
insured
inscription
prohib
saws
sawyer
##acle
##acola
leftovers
slate
slump
slush
slips
slinky
sloppy
weekly
recre
charitable
appra
##ignon
diab
diana
mattered
commiss
sonris
funk
funboy
cheats
##plement
brean
turnpike
sixteenth
glow
glau
glare
##mmy
seeming
lively
watcha
watchman
accents
accustomed
walkie
telem
harmed
harlan
harcourt
ahem
terrace
payne
tripped
tripping
trivial
premed
composition
invaded
invulnerable
##avier
capri
farley
pappas
barons
barric
barging
barrington
barbat
wonderfully
holden
shoves
giul
giov
pickle
edith
editing
edinburgh
metab
preserved
openers
sleepin
restroom
thirteenth
thirtieth
pricks
prizes
countless
standby
decompress
apache
hott
booker
bookkeeper
breakthrough
figur
daring
darwin
untie
evans
relat
relate
billings
skipping
skippy
skrapin
mills
youngsters
eights
bedford
bedbugs
genre
graf
graft
gracie
obit
awa
infinity
simms
##azar
jezzie
earp
earring
confide
confisc
shutters
##ertation
##erties
colossal
##iviere
lighting
##retta
explodes
explicit
index
syl
syll
humph
humming
shooters
geomet
geologists
steamed
starvin
starbuck
corvis
captains
detach
detention
expectin
incur
incons
incoming
bensinger
firehouse
discon
newsstand
watered
##ouche
followers
lieu
##uctive
messin
snif
retro
saliva
salazar
robe
robot
defy
defence
deficiency
deformed
calib
sentenced
fuller
regen
registry
grande
grandad
eyesight
pets
petro
arrows
murdering
espress
winding
windthorne
curl
curric
painless
concorde
wines
winners
winifred
legisl
alongside
##lination
redeem
uncover
louella
raided
propri
properties
richter
midwest
refuel
refinery
refusal
extended
distinction
visible
imposing
impeach
impulses
balled
balloons
transpar
trainee
destined
landy
buckle
bankroll
##ricide
##ricular
erad
sellers
oww
botherin
centre
entrap
squaw
squares
##ramatic
fastball
markets
accidently
poppy
tyrell
tybal
fremont
operated
viking
fairbanks
humanly
cavern
caiman
maxim
councill
mouthed
topside
superf
superc
superb
superv
supervis
kisser
doubles
doubled
danvers
covert
##undant
personalities
##zzik
generals
floats
palantine
protects
casa
casy
##essional
honora
miscar
misinter
smarts
sticky
courteous
telepr
fezzik
conniving
##versial
growin
lariviere
chickened
shorthand
##mingham
irving
irwin
solving
lunches
luncheon
suites
bricks
##iko
hopin
damien
rocker
rockin
cables
destroys
turd
turks
ticks
tickle
birthright
motors
motels
acrob
letterman
##boats
cataly
cardiff
armstrong
dai
daik
lowe
icebergs
boxing
doubtful
##enched
##iliation
sadistic
digs
screwball
greenwich
greenhill
viola
dunn
dunois
boardwalk
geeks
vera
tempting
belongings
rollin
posts
modem
modified
acceptance
macy
macaron
hyst
hyman
hype
hyde
hydra
congreg
continually
tasting
casts
suckin
philanthrop
esteem
calmly
cowan
cowards
gardens
particulars
furry
settles
##bius
quarre
electra
masbath
marries
miriam
bowel
antib
physicians
sensory
drawers
laboure
recognizes
pushes
seaweed
divorces
boyfriends
yellin
##bbs
clara
auditor
auditions
audiences
henri
comforting
codex
credits
credential
admirable
tighter
sharpen
expire
pinpoint
tapest
rubbing
moonan
rental
lamont
sleazy
loosely
looseleaf
traveler
existing
northwest
taxpay
conditioner
malicious
melanch
browns
browning
grier
janey
janiro
organizations
mmmmmmm
swimmin
dancers
objects
objective
##ofessional
civilizations
berry
arche
authorize
randolph
assisting
generations
professors
mixture
licence
licenses
customary
titles
stanford
scarce
risked
niggas
rapes
rapids
clientele
speeding
speedometer
santiago
##lete
bradley
braddock
originals
poolroom
##iatric
ramada
branding
satisfactory
urg
urges
urban
banister
banzai
ratso
commonweal
rosie
combinations
venza
##heads
fema
volga
volumes
provo
providing
sundays
bono
bonjour
regularly
hillside
raban
gamma
wilbur
britons
gallows
developments
whispers
planting
plantation
quarterback
creams
diseased
socialist
engineers
engineered
celebrated
bummed
msayin
buffoon
mutt
mutants
scripture
quotes
maple
sexuality
carton
cartoons
janeiro
buttercup
chaplin
carpath
jabba
albatr
silverstone
rodgers
blondes
florence
magnet
periods
pinky
unlimited
rhian
rhodes
unfaith
processing
trunks
dispute
disposition
pillows
pilletti
whadaya
injunction
eleventh
variet
variation
confirming
hypers
latent
briefs
briefed
stability
choco
loaned
##oxide
shhhhhh
unsc
unsatisf
coastal
coastguard
wolfgang
scratches
underworld
lorraine
implore
montoya
barnard
experimenting
productive
boundary
wyant
acquire
insults
squadron
tempered
negotiator
influenced
congressional
psychoanaly
haywire
theaters
sweaty
asta
bouncy
fags
poured
shawn
shaved
##oscope
escapes
mumble
shelters
popularity
pornos
automated
osborne
versa
financially
preaching
terminator
conducting
katka
lobot
brooks
coincid
pursuing
dissent
dissertation
voorhe
contains
container
containing
explanations
##ohl
francesca
troubling
blasting
confessions
##cracker
conceited
courageous
responded
peddling
tentacles
initiation
achilles
wanda
habitat
settings
deduction
dedicate
rifles
##knife
exercising
marching
nedry
utmost
convene
farts
kilo
attendance
attendants
cereal
complimentary
pleasantville
hanover
envoy
railroads
individuals
laundrom
aiming
puffs
ranks
nesting
sewers
monitored
patriotic
announcing
distracted
bowlers
symbols
bulk
ilia
ruthless
rebutt
unprep
academic
editorial
profitable
limitations
cube
vicky
##draft
analyze
omigod
sparazza
enormously
glorified
##holders
pollution
obligations
telegraph
1969
16th
humpbacks
jahn
jaime
sovereign
paleont
deliberate
rawl
lambeau
nyu
nanny
octavius
legendary
fogg
wiping
yuk
essay
essentially
leonardo
injections
receptionist
werewolves
bluffing
decorator
disciple
disciples
dynamics
greece
naval
unaccept
sparkling
interrupted
memorable
memorize
achieved
siwash
sioux
rejection
myths
sumbitch
sprayed
sweeping
symptom
##iasm
applying
greyhound
diploma
pipeline
tsk
wrestler
exploiting
drafted
observations
klingons
stalking
sequel
selected
selectman
granny
traumatic
gypsy
jayne
tolerance
sofie
guiding
carolina
inconceivable
bambi
dublin
lancelot
nitrate
nitrogen
##nowitz
orphans
plumbers
mocky
annoyed
##immel
exterior
extermin
queers
crowns
eduardo
unexpectedly
durin
ingenue
reassure
shapiro
brewer
mercen
multipl
perpetrator
cassius
nostrils
frustrating
##izzard
smugglers
baptism
caterer
catering
czechoslov
fulfilling
jawohl
##polis
swanney
feathers
sincerely
bunks
diagnosed
harassing
metaphas
brazilian
windsor
penetrated
erection
crunching
insights
indulge
indulgent
treasurer
accomplishments
volunteers
insects
constitutional
bouquet
tangled
vaguely
bruise
quantico
roasted
crucify
elementary
superheroes
romulans
anticipated
titanium
##aaaaaaaaaaaaaaaa
overwhelmed
kobo
satchel
tucked
##ravitch
emilio
presumed
presumptuous
evacuated
patronizing
memoirs
impersonating
brigade
patriotism
nudity
stimulate
overdue
insomn
indoors
verdell
hypothetical
mathematical
lizardo
mildred
pulitzer
dooley
stylish
wholesaler
jeopardize
compassionate
asteroids
coyotes
ostrich
pensacola
theoretical
allegations
allegiance
unprofessional
embezzle
morrissey
interpretation
calculations
extraction
contradict
motivated
cavalier
maneuvering
kryptonite
hazardous
ducts
mtv
pancakes
renaissance
vocal
vocab
##broken
##keeping
arsonist
kidneys
laxative
compartments
retainer
challenges
birdy
birmingham
cunningham
fertilizer
revelation
worshipped
trumpet
pharmac
prejudice
prejudiced
estimating
ambushed
hypnotized
fiancée
ruler
ruling
squeamish
plaque
plausible
offspring
mayflowers
newcomer
eloquent
crockett
parameters
muskie
absorb
synthetic
klein
valdes
vanderbilt
meadow
forensics
troopers
bloated
handicap
handicapped
dissect
trilithium
babysitter
snotty
bleeker
mcintire
mcintosh
grifter
grifters
sarcasm
videotap
videotape
fundamentally
tranquilizer
bixby
rimgale
riviera
stuttering
lovett
##iguration
moebius
disarmament
intervals
christsake
evidently
bullshitting
indigenous
belgian
marshmallow
ultimately
hemorrhaging
crocodile
accommodate
dandy
dulaney
duality
pixilated
wrigley
##zsche
chandler
quartet
blazing
adonis
stratford
hungarians
refugees
roadblock
bleachers
seagrave
mcgruder
massacre
obstetrical
embezzling
overreacting
bawling
ceti
patel
sizemore
xenia
yvonne
rewrite
sugai
bypass
scourge
cradle
serpent
recluse
obedience
sublime
prophet
extradition
##otechn
condescending
projectionist
puzzles
applicant
kremlin
astonishing
icky
lathrop
nourishment
nietzsche
pankot
zurich
nocturnal
noodle
canvas
plunge
trophy
insubordination
sonuvabitch
burrito
transfusion
malignant
melodramatic
cylinder
hillbilly
improving
fingertips
sophomore
picasso
deductible
grasshoppers
cocksuckers
abducted
inexperienced
epidemic
eavesdropping
biederman
cpu
cucamong
cricket
dictionary
henslowe
kosher
mhravitch
mbwun
mabel
norrington
nugent
pakistan
porsche
roulette
sartorius
zuul
zinnowitz
beynon
abraham
shepherd
chelsea
trubshaw
trucoat
nightingale
croupier
handshake
lacrosse
schaefer
insinuating
proverb
prostitutes
controversial
paisley
performances
discredit
refreshing
impotent
transponder
reprieve
ethiopia
pizzeria
etiquette
sacramento
grammoo
advertisement
acknowledged
cauldron
blasphemy
aryan
oracle
pessim
porthos
rallies
sgt
zaltar
##itudes
inaug
doorknob
shakedown
stearns
deirdre
sabbath
arletta
arithmetic
broussard
overworked
marilyn
marguerite
gretchen
removal
minneapolis
handkerchief
pharaoh
interruption
paraiso
sonrisa
barbatus
giovann
skrapinov
espresso
curriculum
transparent
entrapment
tybalt
councillor
misinterpret
macaroni
hydraul
auditorium
credentials
commonwealth
albatross
unfaithful
voorhees
rebuttal
unprepared
cucamonga
0h
03
39
37
3rd
53
58
61
700
8a
89
96
agh
aide
aph
acker
ache
aquar
bil
bong
bac
bids
bikes
cul
cody
coney
cakes
cope
cnn
cici
cotta
dl
dorn
dern
dale
doming
dya
eiff
fain
fatt
faked
fenny
fades
fading
faded
fancies
gould
gert
gaps
gills
gingham
hasty
hedge
ight
iram
igu
iggy
ipo
jd
jad
jank
jib
jaws
jolt
kut
kol
kins
kru
komm
krie
korda
lint
lakes
lars
laps
lenn
lending
lumber
lapsed
lutz
mes
mound
mord
muth
moul
mode
mik
mung
mitz
mashed
mouthing
nou
ner
nir
nab
nlf
nath
nero
nano
naming
oat
ove
ogg
ollie
pes
pse
pum
pough
pett
pager
piers
rin
rugs
sra
sade
sno
sne
satt
sss
tir
tant
tate
tary
tash
tamp
tainted
tumbling
uri
vr
ved
vich
viny
vcr
vidal
vested
vandal
watt
wards
wunder
witted
xavier
yor
yow
yar
yore
yum
yugos
zy
zere
zee
zipp
zones
zapped
zeus
zorg
zeph
##rh
##ruck
##riss
##rude
##rational
##riment
##riman
##nant
##num
##nals
##number
##dam
##dly
##done
##dies
##dens
##dup
##dler
##ao
##iates
##fy
##fir
##fax
##furt
##oise
##ozo
##pta
##pings
##lest
##liness
##lair
##lits
##laughter
##lishing
##lasses
##cans
##cett
##cape
##cats
##comb
##cano
##corp
##wan
##with
##wig
##wife
##weds
##witty
##wait
##kok
##konn
##game
##gling
##gren
##gically
##groom
##guff
##uus
##uper
##uza
##uously
##han
##hose
##hma
##hbert
##harm
##mill
##mand
##mick
##miss
##matic
##moral
##migod
##morda
##bot
##bas
##bod
##bour
##bred
##bug
##birth
##beth
##bread
##bago
##build
##year
##zh
##znick
##vol
##vine
##21
##58
##jorn
##jane
##jama
##39
##70
##íre
##ón
tha
thad
thump
thug
##erit
##inet
##inch
##iners
##atum
##atile
##onin
##onov
##anide
##anza
tole
tock
toaster
##ingson
##llip
whar
whims
##ority
##enk
anto
##arz
##arcer
##areness
##isine
##etes
##otle
##itant
##itri
##rect
##repr
##regn
inmates
inigo
##veau
##uter
##utton
hectic
reop
reiss
reyn
rewards
bew
beak
weve
meld
hag
hagen
dogged
dooms
doggy
dovey
doggie
##idy
##stant
##start
##strel
ongoing
isley
goon
gogh
goosed
gopher
goetz
golits
shal
shea
shuck
shamp
shrew
shiver
shreck
shrap
##alin
##aloo
forfe
##imitar
donowitz
knick
stings
stale
stature
staged
staked
stung
stipe
stunning
stokes
liv
lien
libert
libel
knowed
##chal
##chio
nother
notify
##aders
##adio
myri
nod
nobel
nova
##iration
##irting
##antis
##antics
##antha
##ente
##entious
##eemed
canal
withhold
##illin
##illas
##ooly
##ooey
buts
butth
neal
neander
theyre
##ione
sopr
abby
abys
abrams
abetting
getcha
didja
alliance
##inkled
outbreak
outnumber
outdone
##riers
##riage
##rigal
##heres
##nde
##eacher
sheer
chut
chig
chilly
chester
chigur
howling
howls
suing
sums
sully
prow
printing
pranks
prisons
##oping
##opes
##ophers
##ryption
anyroad
##icer
##icament
##icrous
##ellar
##andez
##iem
vector
whos
dex
deci
deport
dehyd
frisco
fringe
frisk
herring
alo
alp
alumin
alignment
##ilight
everest
##usov
saver
saud
##ivey
manch
manning
manny
manually
orn
ors
orth
orte
tellers
##geese
loew
loco
lollip
##ardin
##arded
ohmigod
##igation
##igure
##istible
##istrib
goody
goodwill
timothy
##ulary
##ulative
seated
segment
##osy
##osals
gummy
exile
##olas
##olving
##olite
##olences
arise
argo
comfy
fromber
##endo
##abag
wills
##ounded
backl
backdraft
##obi
##obes
##obic
##aky
##naw
lettin
spo
spree
sphin
speng
sparing
spleen
spivey
conj
conting
conned
conception
##ourin
##ourse
##umby
bran
bret
brood
brushing
brimmer
bronson
brumby
hades
everythin
twit
twenny
twilight
offed
offland
cary
carpe
amos
trend
trud
trillion
##otherapy
agn
clout
clich
clipp
clerg
clicks
clavius
lem
fucken
enters
happend
##ortions
##beard
##beats
overh
overjoy
downs
pew
pecker
pember
quas
quiz
unbe
unqu
unions
uneth
unann
unru
unka
unmark
moj
mooney
moaning
bytes
blum
blush
##acell
mull
muld
muley
##elaces
marr
mara
maru
marches
marjor
intake
intro
buding
buggin
##agus
sciss
scud
scimitar
##issen
huff
undis
unders
undies
hellhole
hellfire
underhill
wright
wrath
sorcer
sorority
grues
gritty
groves
grotes
roc
roam
roster
roeder
jokers
##actic
helpin
nothingness
##ipated
imf
imitation
imbal
findley
##achi
lifeboat
putty
reman
remed
##pled
##plug
embedded
leaky
elk
elroy
eligible
kinder
kindred
kinderg
thresh
thrills
##udo
cret
crust
crud
croon
cranes
aden
advers
adcox
swenson
partying
smir
smudge
hocker
macc
maura
##gett
miners
minstrel
shits
hiv
hippy
realistically
pertain
perks
pervers
perverse
perceptive
understan
mona
monet
monuments
##vedere
aces
acre
acula
missions
flake
floss
flores
flares
flask
flirting
assail
assert
faust
##cio
supposin
playground
playback
##ogne
##ogens
##ogram
##ogues
startle
phr
pham
phoe
buses
disas
disast
ida
idol
idaho
##ondo
##ondition
##quist
##quiat
deadbeats
tract
trappers
##taine
crain
crabb
tomah
housekeeping
morg
moran
morse
headmaster
headlights
launce
##sheet
strut
interst
interstate
##anson
reson
resists
schof
schooly
parl
parap
paraly
paratr
parsons
insurre
pretzel
pretentious
proc
proceeding
boca
booted
yaw
##acent
##acomb
slink
slum
slang
slope
slither
slaps
slander
slapping
recap
recite
recomb
recipe
charmed
charnier
appropri
contents
divert
dialed
diabet
dioxide
wary
commies
commode
commute
commotion
whichever
huron
##rost
##rovert
breck
breached
turnover
personals
attire
poles
polack
glowing
businessmen
watchit
accum
fined
financed
##ggle
harley
harriman
harkonn
bested
triang
compact
composite
compieg
designing
##xton
caper
capra
capabilities
jacks
sitcom
farrell
schooling
surreal
paved
barb
barman
cuthbert
seniors
endured
holders
##anco
shoelaces
##ultz
jesuits
giang
babylon
edges
edvard
prescribe
damnation
thirties
##lings
christoph
christopher
excused
dolly
decade
decode
decline
deciding
apric
halford
gunning
gunnel
figment
figaro
dared
lawman
secondly
evade
relocated
skid
seti
sethe
complication
complicate
bedev
bedsoe
genetically
numerous
grabbing
obregon
aww
awards
awareness
##otti
##uga
##ugnant
frankfurt
##azin
##azine
##azzo
jeze
passin
passages
passkey
earning
earnings
confine
conform
confuses
configuration
heartbroken
shutup
airs
airk
airstri
colt
cologne
murman
doorbell
lightly
lightweight
lightyear
braver
bragg
brained
explored
dreamin
indign
indicated
indeter
indiffer
sykes
madrid
madrigal
consulate
consulting
bloodbath
delin
delaw
stein
steals
stark
starring
pullin
coral
faction
sender
sendin
speaker
##nebago
blacked
blackheart
detest
engraved
incarcer
firewood
firepower
firearms
depot
discrimin
sidekick
truthfully
buyers
##apple
sexist
collision
collabor
admits
messina
snick
snatched
forgave
retiring
papal
salts
strap
strait
defl
defined
defender
defenses
deflector
burma
burbank
budge
calam
calriss
elekt
lateral
fellah
whitey
whitefoot
jimbo
artem
espar
droppings
sweets
curb
curry
fallout
concur
singin
winters
winnebago
legion
legions
redundant
redistrib
samantha
beatnik
bobbie
subter
subvers
submar
uncanny
uncondition
raf
raisin
satire
proportion
belch
belvedere
##umbles
musl
grego
greased
studios
refined
extend
extras
extinction
classmates
distaste
impolite
medall
medals
ballgame
transaction
bankers
colder
##rical
mistook
owning
owens
specialists
rundown
maryland
kev
psychos
psychologically
catchin
informants
entrusted
entrepr
jerky
jerking
nearer
felton
squal
hospitable
poppa
popeye
merde
typh
freeman
tote
condolences
imagery
imaginary
operates
vien
beseech
humanitarian
caul
wallop
lockdown
repugnant
learns
exceptions
mouthful
michel
##ocam
##ocate
##ocation
##ocrat
quickie
puritan
costing
##ounge
posing
palate
palaces
judicial
protector
cashing
casbah
virge
considerably
considerations
misle
misgu
misfits
pressuring
bask
basquiat
investing
feur
feud
sidelines
sidetrack
commanding
commanded
cryo
demer
##maids
upsets
swears
strick
kickin
packet
irth
irrational
##nese
drunks
suitor
soldado
hops
hopping
garc
garter
garters
unclear
enjoys
enjoyment
enjoyable
quitter
eyebr
cabot
cabana
cabbage
sherm
destroyer
busts
turley
turtles
denies
denny
motions
wedd
footprint
breathin
trucker
trucking
closure
ellingson
torches
detectors
arresting
fedex
cataton
catacomb
cardinal
cardenas
formica
englishman
communism
devour
devotion
190
19th
daitz
appreciates
borne
icey
icebox
boxers
woodwork
digger
screwdriver
dungeon
dunwitty
romans
boarded
visitation
nina
ninja
verified
vermin
veridian
germ
opposing
opponent
impressions
camille
rollers
rolltop
module
moderate
accepts
splits
fills
macguff
hym
hygi
##iterate
southgl
requis
philharm
amaze
equity
equations
particle
preparations
addresses
cello
correl
wildman
priceless
colorado
pardner
fielding
heavenly
appearing
appearances
gaspar
tracker
trackers
bowman
physic
definitive
summon
sensing
sensation
labour
recognizing
rounding
washroom
datura
holed
holier
holster
potent
potentially
potaters
terrence
extracur
clarissa
clarinet
earliest
admiring
admiration
civic
raines
raincoat
depended
tighten
sharon
trickery
##ographs
pinea
dorsey
tarz
tapert
##cyte
francie
rubs
auton
politically
lament
lamagra
viewer
viewing
viewers
cupboard
ports
portray
skinner
skinned
leech
piled
##laim
ideals
yahoo
collectors
##rops
##rophe
brownie
griev
jani
janus
climbs
heavyweight
screamin
routes
embarassing
supported
swimmer
receiver
recepta
repro
baloney
balint
balmoral
matching
berger
archives
authorization
duly
duquette
##affe
blinded
committees
bellmoth
speechless
precog
lucrative
puget
puking
titus
treehorn
scarin
scarred
crawls
roberto
martyr
lindgren
rapture
scrunch
softly
warmth
pathologist
virginal
ramsey
ramón
motherfuckin
airports
gangsters
sundown
swept
familiarity
grader
booger
ratio
laurent
rosy
venom
venison
##headed
complained
volcano
hawks
statistics
provoking
cypher
cyanide
mcclus
mcconn
rumours
hamburgers
touring
tournam
forecl
bugler
designated
drags
weights
hunts
rabin
wilma
wilfred
sneaky
fanatic
fanelli
wisely
accordance
revlon
revolt
shrunk
reacting
exec
snowing
snowman
patterson
stormy
kirby
nicola
bumper
bummer
corral
corrado
skylight
186
muther
villages
villagers
executives
expressly
puny
##genstein
unholy
depressive
quota
hilda
telephones
nutcase
nutshell
representatives
cubs
punchy
chapman
chapters
##boni
separation
tipto
wetter
thyself
defenseless
targeting
napal
magnitude
fiasco
vulcans
enterprises
mortg
155
faber
fabri
peeing
peeking
persian
##monary
processor
dispose
guarantees
pianist
pianos
shapeley
confirms
behavioral
improper
1200
spreads
mathew
tongues
##nnnn
chatting
dumpt
renoir
##aaaaa
siege
siegf
unsp
sedation
seducing
taber
##cloth
occurrence
antique
beauregard
halt
photographic
epic
giggle
gigolo
lorenson
implicate
implanted
montague
assumption
nineteenth
bangkok
cynicism
rewarded
embry
bravely
temperatures
negotiable
deceiving
##risy
##forward
hayse
mattie
froze
rescind
astr
astute
asthma
gears
hobbies
padding
ulcer
ulcers
widows
liberace
demanded
bartending
frau
whacko
stretching
inventor
cadets
dilig
dilithium
toilets
drowns
borderline
osc
pitches
##deus
educational
determination
affects
constructed
nationals
ribbons
predicament
barrytown
purser
buns
bungh
deact
dissatisf
horrid
candied
flattery
wednesdays
lunar
lacks
hooper
nathanael
##ebag
##crack
conceivable
crushes
virtual
virtues
philosophers
tubbs
clinics
hesitated
wanders
vessels
tasker
beefy
neatly
atlantis
wormhole
exercises
marched
reconc
rotation
hackers
cruelty
carpentry
cobra
kinship
oakwood
savvy
bridegroom
attendant
occupational
challenger
215
mechanics
cliffs
scanlon
grossman
flags
flagged
hoods
stiffs
alteration
alienate
intentional
ultra
hauled
structural
proceedings
captive
adjustments
alternatives
tribute
tribuus
industries
salvador
dyed
dyson
racquet
raccoon
patriots
announced
formerly
establishing
symbolic
biology
bulb
bulgar
deem
deejay
frivol
jenzen
##veston
rebuild
unpack
cuisine
vintage
sprung
waitresses
schemes
documentation
cowardice
harboring
trippin
democrat
surroundings
tattler
polls
slaughterhouse
obligated
columns
concerto
bogan
bogart
bogyman
sabu
orchard
subscribe
valentino
hitching
##crity
##cratic
concepts
schwarz
functional
landscape
waltz
technicality
weirder
athlete
coronation
strawberries
frequently
frequencies
exceptionally
gillette
hutu
ingles
assembled
fondness
mandatory
nomination
unacc
stallion
neuro
neurosis
intimately
intimacy
cranky
maintained
wickedness
egos
sinclair
anchors
israelis
stunts
scouting
restrain
explorers
exploration
kristina
writings
measured
##eeeeee
praised
exaggerated
wrestle
wrestled
grocer
exploited
sync
observant
observatory
dictator
reinstated
revealing
outlaws
granma
granville
crusades
##whati
idealism
idealistic
jellybean
mongol
tolerant
whitew
socked
selznick
caroline
possessions
blackmailer
survivor
fidelity
nitro
riddled
concluded
turkle
1972
1971
rehearsing
ichiro
mushy
odette
odessa
riots
##bags
brushes
tramps
fantasize
broadcasting
sabotaged
matthews
pencils
sicilian
reassigned
reassignment
havoc
contribute
commodore
translation
translated
repaired
historian
jacobi
aracht
cassandra
fuchs
pods
nostal
gullible
gulliver
bronze
skillful
1980
1984
cautiously
lamps
outsider
scholars
capitan
hallucination
scumbags
bunker
biocyte
dreary
dreyer
inhale
inhuman
intensely
cocoon
diagnost
1952
fiends
lysine
ponds
vagina
abduction
maneuvers
ensign
underestimated
slacking
indulgence
robberies
convicts
boosted
disgraceful
navigate
navigator
gazelle
rooster
tango
tangiers
sult
manipulate
manipulated
spanking
flaunt
simplicity
reformed
1945
sufficiently
scenarios
tibetan
3000
cinch
jasmine
##ihan
spooning
brassiere
twenties
flavors
depths
1995
thermal
dimensional
lanterns
manufactured
manufacturer
henderson
nudie
ratted
rattling
unwilling
eliminated
smeared
craziness
craziest
highlands
highlander
irresistible
irritate
immigrant
hypothetically
counterfeiting
baines
ludwig
ludicrous
antonio
shagging
exorcist
enlightened
scalped
##ogenic
comprehension
jeopardy
demolished
obscure
oriental
orientation
unlocked
vincenzo
overlooked
enthusiasm
coyote
hinkle
uneasy
emerge
welshman
fragments
accelerate
clemency
lumps
zombies
##keepsie
sumpter
waldman
hoffman
intercepted
endangered
distribut
squatting
vengeful
hypocrisy
flaemmchen
akron
fibers
fertile
hormone
hormones
##ranean
meyerling
unloaded
resurrect
metropolitan
colombo
tormenting
dishonest
categories
botany
munchkin
oooooh
##101
heineken
stooge
##alleled
manslaughter
undertaken
newcomers
flunked
deserter
behaved
disclose
artificially
squirrel
squirrels
insecurity
keri
nipple
oyster
pimps
pansies
vanderhof
meadows
shabbas
forensic
spicoli
oversight
blooming
newlyweds
dissection
appeals
untouchables
awwww
electrified
sarcastic
variations
cheerleader
##ebrae
prosperous
tranquil
dwarfs
bixler
gatling
keefe
oberfeld
pestil
guerr
trespass
trespassing
intervention
inserted
christsakes
consistent
incorpor
incorrect
distinguished
mediocre
mediocrity
rupture
ruptured
freighter
cremated
grieve
grieving
crocodiles
fernando
kwan
nauseous
pioneer
rapport
voters
aristotle
aristocrat
unbear
bubbles
persecut
desecration
espion
subdued
musketeers
erratic
ernest
squeezed
mobilize
gelatin
rolfe
xk101
##lichman
##lavia
reeks
ligourin
sunglasses
exhilar
spunky
twinkies
peerless
flintstone
proximity
sluggish
passwords
annihilation
imaginative
alexandria
berthier
pantyhose
acquisition
mulvaney
luciano
craftsman
merchandising
borders
celest
nylons
paternity
zimmermann
ineff
hepburn
staggering
chubby
demented
arbitr
quellek
mundt
intolerable
lifeforms
elitist
travesty
lacerations
insolent
metallic
filmmaker
uncontroll
impostor
positronic
norwegian
oppression
lyndon
ottos
tabloids
analytical
gynecologist
lazarus
accompanying
raspail
schizophrenic
wannabes
bavmorda
cullum
gavin
hologram
kooky
kenneth
lsd
ogre
pestering
riker
taiwan
vultures
voila
yengeese
thalaron
gospel
prolong
atheist
frenzy
brodsky
carcin
envelopes
unparalleled
moorings
maitre
perjury
fawcett
disadvantage
billiards
watermelon
repellent
disapproval
communicator
fatigued
prodigy
antigua
rebellion
skeletons
economics
burgundy
microchips
phenomenon
bazaar
hothead
kgb
poultry
ruckus
tutsi
vortex
##busters
##animous
inadequate
dossier
libyan
solemn
fratern
manfredi
clerks
clobber
cloverleaf
grouchy
longshanks
impediment
throbbing
paramedics
diabetic
giulia
relativity
confiscated
sylvie
starbucks
detachment
proprietor
miscarriage
catalyst
tapestries
urgently
coincidences
laundromat
rawlston
unacceptable
mercenary
czechoslovakia
metaphasic
embezzlement
vocabulary
videotapes
giovanni
ackerman
aquarium
cottage
eiffel
fennyman
gertrude
jankis
kutusov
kruger
kommand
krieger
lennon
mutha
mitzv
poughkeepsie
sattler
vinyl
vandalism
yugoslavia
zephram
thaddeus
reynard
doomsday
golitsyn
shalom
shampoo
shrapnel
myriad
neanderth
abyss
chigurh
saudi
ortega
fromberge
sphinx
spengler
trudell
overjoyed
pemberton
unethical
unannounced
unruly
unmarked
budington
scissors
gruesome
grotesque
kindergarten
threshold
phoebe
tomahawk
launcelot
schofield
schoolyard
insurrection
diabetes
compiegne
jezebel
indeterminate
delaware
incarceration
calrissian
esparza
submarine
gregoire
distasteful
entreprene
misguided
sidetracked
catacombs
hygiene
southglen
philharmonic
gasparilla
extracurricular
mcconnell
siegfried
